{
  "version": "1.0",
  "truncation": null,
  "padding": null,
  "added_tokens": [
    {
      "id": 0,
      "content": "[UNK]",
      "single_word": false,
      "lstrip": false,
      "rstrip": false,
      "normalized": false,
      "special": true
    },
    {
      "id": 1,
      "content": "[CLS]",
      "single_word": false,
      "lstrip": false,
      "rstrip": false,
      "normalized": false,
      "special": true
    },
    {
      "id": 2,
      "content": "[SEP]",
      "single_word": false,
      "lstrip": false,
      "rstrip": false,
      "normalized": false,
      "special": true
    },
    {
      "id": 3,
      "content": "[PAD]",
      "single_word": false,
      "lstrip": false,
      "rstrip": false,
      "normalized": false,
      "special": true
    },
    {
      "id": 4,
      "content": "[MASK]",
      "single_word": false,
      "lstrip": false,
      "rstrip": false,
      "normalized": false,
      "special": true
    },
    {
      "id": 5,
      "content": "[PAR]",
      "single_word": false,
      "lstrip": false,
      "rstrip": false,
      "normalized": false,
      "special": true
    },
    {
      "id": 6,
      "content": "[TAB]",
      "single_word": false,
      "lstrip": false,
      "rstrip": false,
      "normalized": false,
      "special": true
    }
  ],
  "normalizer": null,
  "pre_tokenizer": {
    "type": "Sequence",
    "pretokenizers": [
      {
        "type": "ByteLevel",
        "add_prefix_space": true,
        "trim_offsets": true,
        "use_regex": true
      },
      {
        "type": "Digits",
        "individual_digits": true
      }
    ]
  },
  "post_processor": {
    "type": "ByteLevel",
    "add_prefix_space": true,
    "trim_offsets": true,
    "use_regex": true
  },
  "decoder": {
    "type": "ByteLevel",
    "add_prefix_space": true,
    "trim_offsets": true,
    "use_regex": true
  },
  "model": {
    "type": "WordPiece",
    "unk_token": "[UNK]",
    "continuing_subword_prefix": "",
    "max_input_chars_per_word": 100,
    "vocab": {
      "[UNK]": 0,
      "[CLS]": 1,
      "[SEP]": 2,
      "[PAD]": 3,
      "[MASK]": 4,
      "[PAR]": 5,
      "[TAB]": 6,
      "!": 7,
      "\"": 8,
      "#": 9,
      "$": 10,
      "%": 11,
      "&": 12,
      "'": 13,
      "(": 14,
      ")": 15,
      "*": 16,
      "+": 17,
      ",": 18,
      "-": 19,
      ".": 20,
      "/": 21,
      "0": 22,
      "1": 23,
      "2": 24,
      "3": 25,
      "4": 26,
      "5": 27,
      "6": 28,
      "7": 29,
      "8": 30,
      "9": 31,
      ":": 32,
      ";": 33,
      "<": 34,
      "=": 35,
      ">": 36,
      "?": 37,
      "@": 38,
      "A": 39,
      "B": 40,
      "C": 41,
      "D": 42,
      "E": 43,
      "F": 44,
      "G": 45,
      "H": 46,
      "I": 47,
      "J": 48,
      "K": 49,
      "L": 50,
      "M": 51,
      "N": 52,
      "O": 53,
      "P": 54,
      "Q": 55,
      "R": 56,
      "S": 57,
      "T": 58,
      "U": 59,
      "V": 60,
      "W": 61,
      "X": 62,
      "Y": 63,
      "Z": 64,
      "[": 65,
      "\\": 66,
      "]": 67,
      "^": 68,
      "_": 69,
      "`": 70,
      "a": 71,
      "b": 72,
      "c": 73,
      "d": 74,
      "e": 75,
      "f": 76,
      "g": 77,
      "h": 78,
      "i": 79,
      "j": 80,
      "k": 81,
      "l": 82,
      "m": 83,
      "n": 84,
      "o": 85,
      "p": 86,
      "q": 87,
      "r": 88,
      "s": 89,
      "t": 90,
      "u": 91,
      "v": 92,
      "w": 93,
      "x": 94,
      "y": 95,
      "z": 96,
      "{": 97,
      "|": 98,
      "}": 99,
      "~": 100,
      "¡": 101,
      "¢": 102,
      "£": 103,
      "¤": 104,
      "¥": 105,
      "¦": 106,
      "§": 107,
      "¨": 108,
      "©": 109,
      "ª": 110,
      "«": 111,
      "¬": 112,
      "®": 113,
      "¯": 114,
      "°": 115,
      "±": 116,
      "²": 117,
      "³": 118,
      "´": 119,
      "µ": 120,
      "¶": 121,
      "·": 122,
      "¸": 123,
      "¹": 124,
      "º": 125,
      "»": 126,
      "¼": 127,
      "½": 128,
      "¾": 129,
      "¿": 130,
      "Â": 131,
      "Ã": 132,
      "Ä": 133,
      "Å": 134,
      "Æ": 135,
      "Ç": 136,
      "È": 137,
      "É": 138,
      "Ê": 139,
      "Ë": 140,
      "Ï": 141,
      "Ð": 142,
      "Ø": 143,
      "Ù": 144,
      "Û": 145,
      "à": 146,
      "á": 147,
      "â": 148,
      "ã": 149,
      "ï": 150,
      "ô": 151,
      "Ġ": 152,
      "Ģ": 153,
      "ģ": 154,
      "Ĥ": 155,
      "ĥ": 156,
      "Ħ": 157,
      "ħ": 158,
      "Ĩ": 159,
      "ĩ": 160,
      "Ī": 161,
      "ī": 162,
      "Ĭ": 163,
      "ĭ": 164,
      "Į": 165,
      "į": 166,
      "İ": 167,
      "ı": 168,
      "Ĳ": 169,
      "ĳ": 170,
      "Ĵ": 171,
      "ĵ": 172,
      "Ķ": 173,
      "ķ": 174,
      "ĸ": 175,
      "Ĺ": 176,
      "ĺ": 177,
      "Ļ": 178,
      "ļ": 179,
      "Ľ": 180,
      "ľ": 181,
      "Ŀ": 182,
      "ŀ": 183,
      "Ł": 184,
      "ł": 185,
      "Ń": 186,
      "Ġt": 187,
      "Ġ\"": 188,
      "he": 189,
      "Ġa": 190,
      ".\"": 191,
      "in": 192,
      "Ġw": 193,
      "Ġ\"*": 194,
      "Ġthe": 195,
      "ou": 196,
      "Ġs": 197,
      "re": 198,
      "Ġo": 199,
      "ha": 200,
      "er": 201,
      "Ġb": 202,
      "nd": 203,
      "it": 204,
      "Ġy": 205,
      "Ġc": 206,
      "is": 207,
      "Ġm": 208,
      "Ġd": 209,
      "on": 210,
      "Ġf": 211,
      "ing": 212,
      "OT": 213,
      "MOT": 214,
      "ll": 215,
      "Ġyou": 216,
      "Ġto": 217,
      "an": 218,
      "or": 219,
      "es": 220,
      "ed": 221,
      "Ġp": 222,
      "hat": 223,
      "Ġg": 224,
      "en": 225,
      "Ġl": 226,
      "?\"": 227,
      "CH": 228,
      "Ġand": 229,
      "ĠI": 230,
      "Ġn": 231,
      "CHI": 232,
      "ar": 233,
      "Ġof": 234,
      "as": 235,
      "Ġin": 236,
      "at": 237,
      "om": 238,
      "Ġhe": 239,
      "'s": 240,
      "ow": 241,
      "Ġh": 242,
      "Ġit": 243,
      "ot": 244,
      "Ġha": 245,
      "le": 246,
      "ve": 247,
      "Ġthat": 248,
      "ay": 249,
      "Ġth": 250,
      "et": 251,
      "Ġon": 252,
      "ic": 253,
      "us": 254,
      "gh": 255,
      "id": 256,
      "Ġbe": 257,
      "Ġis": 258,
      "Ġwe": 259,
      "ld": 260,
      "Ġe": 261,
      "ut": 262,
      "al": 263,
      "oo": 264,
      "Ġwas": 265,
      "'t": 266,
      "im": 267,
      "ke": 268,
      "ac": 269,
      "ad": 270,
      "Ġdo": 271,
      "Ġre": 272,
      "ver": 273,
      "ĠT": 274,
      "Ġu": 275,
      "Ġ=": 276,
      "Ġfor": 277,
      "ght": 278,
      "Ġr": 279,
      "ir": 280,
      "ly": 281,
      "ion": 282,
      "se": 283,
      "ent": 284,
      "Ġst": 285,
      "am": 286,
      "ĠM": 287,
      "ĠS": 288,
      "out": 289,
      "Ġk": 290,
      "ĠA": 291,
      "st": 292,
      "ith": 293,
      "!\"": 294,
      "Ġme": 295,
      "ight": 296,
      "Ġan": 297,
      "ea": 298,
      "her": 299,
      "Ġwith": 300,
      "Ġwhat": 301,
      "Ġwh": 302,
      "ome": 303,
      "Ġgo": 304,
      "Ġse": 305,
      "all": 306,
      "ĠC": 307,
      "ur": 308,
      "ĠB": 309,
      "Ġas": 310,
      "ch": 311,
      "Ġnot": 312,
      "Ġli": 313,
      "Ġat": 314,
      "ter": 315,
      "ould": 316,
      "Ġhave": 317,
      "Ġthis": 318,
      "..": 319,
      "ro": 320,
      "ill": 321,
      "ĠH": 322,
      "Ġkn": 323,
      "Ġare": 324,
      "Ġno": 325,
      "ie": 326,
      "ce": 327,
      "Ġthere": 328,
      "if": 329,
      "il": 330,
      "Ġcan": 331,
      "ust": 332,
      "]\"": 333,
      "Ġ[": 334,
      "ook": 335,
      "ct": 336,
      "Ġone": 337,
      "ant": 338,
      "ĠThe": 339,
      "Ġhis": 340,
      "Ġthey": 341,
      "Ġknow": 342,
      "Ġshe": 343,
      "Ġj": 344,
      "Ġso": 345,
      "Ġdon": 346,
      "Ġyour": 347,
      "xx": 348,
      "Ġwhe": 349,
      "un": 350,
      "Ġfr": 351,
      "Ġup": 352,
      "Ġher": 353,
      "ain": 354,
      "eah": 355,
      "Ġ\"[": 356,
      "and": 357,
      "op": 358,
      "ĠP": 359,
      "Ġne": 360,
      "ell": 361,
      "ore": 362,
      "Ġmy": 363,
      "ĠD": 364,
      "um": 365,
      "Ġall": 366,
      "Ġhad": 367,
      "ab": 368,
      "Ġbut": 369,
      "Ġlike": 370,
      "our": 371,
      "Ġsh": 372,
      "ge": 373,
      "pp": 374,
      "Ġde": 375,
      "art": 376,
      "ĠJ": 377,
      "ood": 378,
      "Ġsa": 379,
      "ĠF": 380,
      "ack": 381,
      "ri": 382,
      "ol": 383,
      "Ġout": 384,
      "ĠW": 385,
      "Ġhim": 386,
      "Ġget": 387,
      "ink": 388,
      "ck": 389,
      "ake": 390,
      "'re": 391,
      "ul": 392,
      "Ġab": 393,
      "Ġpl": 394,
      "ry": 395,
      "ĠG": 396,
      "Ġdid": 397,
      "You": 398,
      "th": 399,
      "el": 400,
      "Ġal": 401,
      "...\"": 402,
      "AT": 403,
      "Ġsee": 404,
      "Ġfrom": 405,
      "ĠL": 406,
      "Ġlook": 407,
      "ig": 408,
      "ess": 409,
      "han": 410,
      "IN": 411,
      "ĠR": 412,
      "very": 413,
      "ation": 414,
      ",\"": 415,
      "Ġoh": 416,
      "red": 417,
      "Ġor": 418,
      "Ġhere": 419,
      "'m": 420,
      "Ġwere": 421,
      "ers": 422,
      "est": 423,
      "Ġby": 424,
      "qu": 425,
      "Ġsu": 426,
      "ist": 427,
      "Ġyeah": 428,
      "na": 429,
      "ound": 430,
      "ra": 431,
      "ame": 432,
      "ind": 433,
      "os": 434,
      "ĠE": 435,
      "itt": 436,
      "Ġthem": 437,
      "FAT": 438,
      "ĠN": 439,
      "Ġsome": 440,
      "Ġjust": 441,
      "ard": 442,
      "nt": 443,
      "res": 444,
      "Ġthink": 445,
      "ong": 446,
      "Ġgot": 447,
      "Ġcom": 448,
      "The": 449,
      "one": 450,
      "own": 451,
      "Ġwant": 452,
      "Ġabout": 453,
      "ak": 454,
      "use": 455,
      "Ġwho": 456,
      "ast": 457,
      "ive": 458,
      "'ll": 459,
      "em": 460,
      "Ġwor": 461,
      "Ġwould": 462,
      "ally": 463,
      "Ġsp": 464,
      "INV": 465,
      "].\"": 466,
      "ap": 467,
      "Ġright": 468,
      "ĠO": 469,
      "Ġsaid": 470,
      "Ġif": 471,
      "Ġnow": 472,
      "ate": 473,
      "Ġv": 474,
      "ep": 475,
      "Ġ(": 476,
      "ick": 477,
      "Ġcon": 478,
      "Ġbo": 479,
      "Ġex": 480,
      "ort": 481,
      "xxx": 482,
      "Ġxxx": 483,
      "--": 484,
      "Ġany": 485,
      "Ġthen": 486,
      "ice": 487,
      "Ġsay": 488,
      "ven": 489,
      "kay": 490,
      "ich": 491,
      "ime": 492,
      "fe": 493,
      "ber": 494,
      "Ġtw": 495,
      "Ġwhen": 496,
      "Ġman": 497,
      "ough": 498,
      "other": 499,
      "hi": 500,
      "Ġus": 501,
      "Ġput": 502,
      "ag": 503,
      "Ġwill": 504,
      "Ġgood": 505,
      "hing": 506,
      "Ġwhere": 507,
      "ies": 508,
      "ide": 509,
      "Ġpro": 510,
      "ine": 511,
      "Ġint": 512,
      "ĠHe": 513,
      "ous": 514,
      "ittle": 515,
      "od": 516,
      "ther": 517,
      "Ġ'": 518,
      "Ġag": 519,
      "ear": 520,
      "Ġdown": 521,
      "Ġtr": 522,
      "au": 523,
      "Ġback": 524,
      "Ġer": 525,
      "ose": 526,
      "Ġlittle": 527,
      "ost": 528,
      "It": 529,
      "Ġgoing": 530,
      "ca": 531,
      "'ve": 532,
      "Ġcome": 533,
      "Ġcould": 534,
      "Ġtime": 535,
      "Ġbeen": 536,
      "way": 537,
      "Ġcl": 538,
      "Ġover": 539,
      "Ġmore": 540,
      "Ġbr": 541,
      "Ġwhich": 542,
      "Ġwell": 543,
      "Ġvery": 544,
      "Ġhas": 545,
      "lf": 546,
      "Ġoff": 547,
      "ove": 548,
      "What": 549,
      "Ġar": 550,
      "Ġokay": 551,
      "ace": 552,
      "Ġtwo": 553,
      "ĠIt": 554,
      "Ġtoo": 555,
      "ree": 556,
      "ity": 557,
      "ite": 558,
      "AR": 559,
      "Ġqu": 560,
      "Ġhow": 561,
      "ĠK": 562,
      "Ġlet": 563,
      "Ġother": 564,
      "Ġplay": 565,
      "ĠU": 566,
      "Ġpe": 567,
      "cause": 568,
      "Ġtheir": 569,
      "Ġthing": 570,
      "Ġbl": 571,
      "Ġfe": 572,
      "are": 573,
      "ft": 574,
      "Ġthan": 575,
      "ure": 576,
      "He": 577,
      "Ġle": 578,
      "And": 579,
      "my": 580,
      "Ġgr": 581,
      "Ġaf": 582,
      "reat": 583,
      "alk": 584,
      "ish": 585,
      "ment": 586,
      "ud": 587,
      "ond": 588,
      "add": 589,
      "Ġyes": 590,
      "te": 591,
      "XP": 592,
      "Yeah": 593,
      "onna": 594,
      "EXP": 595,
      "ase": 596,
      "Ġro": 597,
      "urn": 598,
      "No": 599,
      "orn": 600,
      "Ġgonna": 601,
      "Ġdoes": 602,
      "omet": 603,
      "ought": 604,
      "ue": 605,
      "iss": 606,
      "ian": 607,
      "Oh": 608,
      "age": 609,
      "hed": 610,
      "Ġmake": 611,
      "uck": 612,
      "Ġinto": 613,
      "Ġagain": 614,
      "ople": 615,
      "ect": 616,
      "Ġway": 617,
      "iv": 618,
      "Ġam": 619,
      "irst": 620,
      "Ġtake": 621,
      "ty": 622,
      "ass": 623,
      "ia": 624,
      "ble": 625,
      "ps": 626,
      "ary": 627,
      "ount": 628,
      "Ġsomet": 629,
      "ade": 630,
      "ire": 631,
      "PAR": 632,
      "Ġen": 633,
      "Ġwork": 634,
      "Ġuh": 635,
      "Ġtell": 636,
      "Ġco": 637,
      "Ġpeople": 638,
      "We": 639,
      "Ġpr": 640,
      "Ġwat": 641,
      "Ġsha": 642,
      "ov": 643,
      "Ġneed": 644,
      "act": 645,
      "pt": 646,
      "Ġfirst": 647,
      "uch": 648,
      "Ġmean": 649,
      "ren": 650,
      "Ġhand": 651,
      "Ġday": 652,
      "self": 653,
      "ĠIn": 654,
      "pl": 655,
      "Ġshould": 656,
      "ise": 657,
      "Ġcall": 658,
      "per": 659,
      "ress": 660,
      "Ġpart": 661,
      "Ġafter": 662,
      "av": 663,
      "ull": 664,
      "his": 665,
      "ci": 666,
      "Ġfl": 667,
      "ang": 668,
      "Ġun": 669,
      "ys": 670,
      "ather": 671,
      "nder": 672,
      "That": 673,
      "ord": 674,
      "uh": 675,
      "Ġbet": 676,
      "so": 677,
      "mer": 678,
      "ĠSt": 679,
      "we": 680,
      "Ġour": 681,
      "Ġthr": 682,
      "Ġcar": 683,
      "Ġte": 684,
      "augh": 685,
      "Ġcha": 686,
      "fore": 687,
      "Ġevery": 688,
      "wn": 689,
      "les": 690,
      "ff": 691,
      "Ġpo": 692,
      "Ġpre": 693,
      "Ġbecause": 694,
      "able": 695,
      "Ġmuch": 696,
      "...": 697,
      "int": 698,
      "Ġdidn": 699,
      "Ġonly": 700,
      "Well": 701,
      "ady": 702,
      "ile": 703,
      "Ġchi": 704,
      "ach": 705,
      "ĠMr": 706,
      "be": 707,
      "Yes": 708,
      "Ġreally": 709,
      "Ġthese": 710,
      "anna": 711,
      "Ġch": 712,
      "Ġgu": 713,
      "Ġyear": 714,
      "ool": 715,
      "thing": 716,
      "iz": 717,
      "Ġsomething": 718,
      "AN": 719,
      "irl": 720,
      "ng": 721,
      "Ġsec": 722,
      "ouse": 723,
      "oc": 724,
      "Ġdis": 725,
      "ark": 726,
      "ance": 727,
      "Ġmade": 728,
      "ting": 729,
      "Ġhapp": 730,
      "ĠV": 731,
      "day": 732,
      "Ġwhy": 733,
      "ob": 734,
      "Ġwr": 735,
      "ne": 736,
      "og": 737,
      "hy": 738,
      "ru": 739,
      "Ġwanna": 740,
      "cc": 741,
      "ock": 742,
      "But": 743,
      "ied": 744,
      "Ġchild": 745,
      "ict": 746,
      "'d": 747,
      "ated": 748,
      "ĠShe": 749,
      "oh": 750,
      "Ġlong": 751,
      "Ġad": 752,
      "Ġtalk": 753,
      "Ġsm": 754,
      "ew": 755,
      "old": 756,
      "Ġbig": 757,
      "ub": 758,
      "ory": 759,
      "Ġke": 760,
      "Ġbefore": 761,
      "Ġmay": 762,
      "Ġthree": 763,
      "Ġrem": 764,
      "hes": 765,
      "cl": 766,
      "Ġbab": 767,
      "Ġunder": 768,
      "Ġaway": 769,
      "ions": 770,
      "Ġsc": 771,
      "ip": 772,
      "Ġthose": 773,
      "Ġgirl": 774,
      "Ġim": 775,
      "IS": 776,
      "Ġact": 777,
      "oll": 778,
      "Ġcomp": 779,
      "ward": 780,
      "ving": 781,
      "ence": 782,
      "Ġum": 783,
      "Ġdoing": 784,
      "Ġhel": 785,
      "Ġturn": 786,
      "Ġwent": 787,
      "RO": 788,
      "Ġper": 789,
      "Ġnever": 790,
      "Ġask": 791,
      "Ġcr": 792,
      "ĠY": 793,
      "Ġalso": 794,
      "gg": 795,
      "man": 796,
      "Ġapp": 797,
      "Ġthought": 798,
      "ens": 799,
      "Ġold": 800,
      "ful": 801,
      "MA": 802,
      "Ġhome": 803,
      "ix": 804,
      "iend": 805,
      "ild": 806,
      "Ġ\"%": 807,
      "oot": 808,
      "ling": 809,
      "ons": 810,
      "ï¿": 811,
      "Ġcame": 812,
      "Ġthings": 813,
      "Ġbook": 814,
      "laugh": 815,
      "rd": 816,
      "hen": 817,
      "Ġple": 818,
      "Ġeven": 819,
      "So": 820,
      "Ġnew": 821,
      "Ġanother": 822,
      "ious": 823,
      ".]\"": 824,
      "Ġgive": 825,
      "ks": 826,
      "Ġbit": 827,
      "pe": 828,
      "ors": 829,
      "Ġfind": 830,
      "Ġhead": 831,
      "Ġgreat": 832,
      "Ġcont": 833,
      "Ġmust": 834,
      "Ġtry": 835,
      "ans": 836,
      "Ġeat": 837,
      "ath": 838,
      "Ġdone": 839,
      "ĠCh": 840,
      "Ġlove": 841,
      "ved": 842,
      "Ġsl": 843,
      "Ġstart": 844,
      "Ġhelp": 845,
      "Ġthrough": 846,
      "Ġlea": 847,
      "Ġboy": 848,
      "oy": 849,
      "ily": 850,
      "get": 851,
      "Ġhouse": 852,
      "ny": 853,
      "Ġmom": 854,
      "ings": 855,
      "Ġbu": 856,
      "Ġshow": 857,
      "aking": 858,
      "ign": 859,
      "Ġstill": 860,
      "Ġbaby": 861,
      "ait": 862,
      "Ġlast": 863,
      "ĠFr": 864,
      "ried": 865,
      "igh": 866,
      "here": 867,
      "ave": 868,
      "Ġres": 869,
      "Ġmany": 870,
      "TE": 871,
      "Ġname": 872,
      "air": 873,
      "âĢ": 874,
      "Ġwon": 875,
      "Ġlot": 876,
      "GMA": 877,
      "akes": 878,
      "ail": 879,
      "ww": 880,
      "Ġche": 881,
      "HE": 882,
      "Ġmight": 883,
      "ms": 884,
      "xt": 885,
      "Ġser": 886,
      "ened": 887,
      "tain": 888,
      "ars": 889,
      "ody": 890,
      "Ġchan": 891,
      "Ġop": 892,
      "aw": 893,
      "als": 894,
      "ves": 895,
      "hm": 896,
      "Ġmin": 897,
      "ĠUn": 898,
      "Ġnight": 899,
      "ually": 900,
      "Ġkind": 901,
      "Ġfound": 902,
      "ah": 903,
      "ummy": 904,
      "Ġmother": 905,
      "med": 906,
      "Ġbel": 907,
      "âĻ": 908,
      "iver": 909,
      "Ġdif": 910,
      "up": 911,
      "ĠThey": 912,
      "laughs": 913,
      "ates": 914,
      "Ġsit": 915,
      "ult": 916,
      "chool": 917,
      "port": 918,
      "Ġcount": 919,
      "Ġmov": 920,
      "Ġcare": 921,
      "land": 922,
      "side": 923,
      "Ġah": 924,
      "Ġrec": 925,
      "oney": 926,
      "ater": 927,
      "Ġfeel": 928,
      "Ġmost": 929,
      "âĻª": 930,
      "Ġfour": 931,
      "anc": 932,
      "Ġbot": 933,
      "Ġown": 934,
      "Ġcalled": 935,
      "body": 936,
      "oss": 937,
      "Ġfriend": 938,
      "BRO": 939,
      "Ġbetter": 940,
      "Ġcomm": 941,
      "rent": 942,
      "Ġused": 943,
      "ember": 944,
      "und": 945,
      "Ġel": 946,
      "Ġlooks": 947,
      "Ġaround": 948,
      "Ġsuch": 949,
      "Ġerm": 950,
      "Ġkeep": 951,
      "Ġsure": 952,
      "ever": 953,
      "ee": 954,
      "Ġend": 955,
      "Ġisn": 956,
      "Ġyears": 957,
      "Ġdes": 958,
      "Ġlife": 959,
      "Ġits": 960,
      "imes": 961,
      "Ġbeing": 962,
      "Ġcour": 963,
      "Ġplace": 964,
      "Ġstr": 965,
      "They": 966,
      "orry": 967,
      "addy": 968,
      "Ġwater": 969,
      "Ġanything": 970,
      "Ġey": 971,
      "ple": 972,
      "Ġnice": 973,
      "How": 974,
      "Ġgl": 975,
      "MCH": 976,
      "rest": 977,
      "ical": 978,
      "uc": 979,
      "Ġball": 980,
      "ways": 981,
      "She": 982,
      "Ġmat": 983,
      "Ġsame": 984,
      "ning": 985,
      "ince": 986,
      "oun": 987,
      "ĠBr": 988,
      "ank": 989,
      "Ġwhile": 990,
      "Ġstop": 991,
      "ute": 992,
      "Ġshall": 993,
      "the": 994,
      "Ġsupp": 995,
      "Ġdoesn": 996,
      "Ġdr": 997,
      "Ġmon": 998,
      "orm": 999,
      "ited": 1000,
      "ĠAnd": 1001,
      "Ġfin": 1002,
      "Ġwait": 1003,
      "ĠBut": 1004,
      "ope": 1005,
      "This": 1006,
      "ph": 1007,
      "Ġplease": 1008,
      "ican": 1009,
      "Ġcle": 1010,
      "Ġroom": 1011,
      "led": 1012,
      "ations": 1013,
      "ident": 1014,
      "Ġrun": 1015,
      "Ġnext": 1016,
      "Ġpol": 1017,
      "row": 1018,
      "ner": 1019,
      "Ġtold": 1020,
      "Ġschool": 1021,
      "Ġbre": 1022,
      "Ġfar": 1023,
      "Ġsw": 1024,
      "ction": 1025,
      "ĠMar": 1026,
      "Ġelse": 1027,
      "Ġatt": 1028,
      "Why": 1029,
      "Ġset": 1030,
      "SIS": 1031,
      "ss": 1032,
      "ition": 1033,
      "pr": 1034,
      "outh": 1035,
      "NAN": 1036,
      "Do": 1037,
      "If": 1038,
      "ĠAl": 1039,
      "ta": 1040,
      "Ġword": 1041,
      "Ġmhm": 1042,
      "There": 1043,
      "bab": 1044,
      "ung": 1045,
      "Ġwee": 1046,
      "Ġleft": 1047,
      "Ġalways": 1048,
      "arly": 1049,
      "ont": 1050,
      "Ġread": 1051,
      "Ġhard": 1052,
      "Ġpoint": 1053,
      "ho": 1054,
      "Ġspe": 1055,
      "Ġdiffe": 1056,
      "Ġpres": 1057,
      "mber": 1058,
      "aught": 1059,
      "Ġbeg": 1060,
      "Ġhold": 1061,
      "Ġdist": 1062,
      "Ġfun": 1063,
      "ness": 1064,
      "ĠAmer": 1065,
      "Ġbus": 1066,
      "Ġthank": 1067,
      "ĠMummy": 1068,
      "ream": 1069,
      "Ġfather": 1070,
      "Ġface": 1071,
      "ĠCha": 1072,
      "Ġacc": 1073,
      "Ġ_": 1074,
      "Ġgone": 1075,
      "Ġmen": 1076,
      "Ġunt": 1077,
      "âĢĵ": 1078,
      "ohn": 1079,
      "Ġbec": 1080,
      "Ġcol": 1081,
      "Ġtook": 1082,
      "Ġmoney": 1083,
      "ows": 1084,
      "Ġsaw": 1085,
      "----": 1086,
      "Ġquite": 1087,
      "Ġac": 1088,
      "vel": 1089,
      "right": 1090,
      "Ġwalk": 1091,
      "Ġdra": 1092,
      "mp": 1093,
      "Ġfive": 1094,
      "ug": 1095,
      "ĠCHI": 1096,
      "Ġuse": 1097,
      "leep": 1098,
      "Ġgoes": 1099,
      "Ġfam": 1100,
      "Ġopen": 1101,
      "Ġhm": 1102,
      "pect": 1103,
      "Ġob": 1104,
      "Ġind": 1105,
      "ES": 1106,
      "eb": 1107,
      "Ġbed": 1108,
      "ished": 1109,
      "Ġnum": 1110,
      "Ġstand": 1111,
      "Don": 1112,
      "ane": 1113,
      "Ġenough": 1114,
      "ĠThis": 1115,
      "Ġbox": 1116,
      "Ġsorry": 1117,
      "gr": 1118,
      "Ġsur": 1119,
      "oon": 1120,
      "Ġsays": 1121,
      "Ġthough": 1122,
      "Ġele": 1123,
      "ĠAs": 1124,
      "erson": 1125,
      "Ġuntil": 1126,
      "ters": 1127,
      "me": 1128,
      "Ġhear": 1129,
      "dy": 1130,
      "ins": 1131,
      "Ġhuh": 1132,
      "ton": 1133,
      "Ġwatch": 1134,
      "Ġcoming": 1135,
      "\".": 1136,
      "ib": 1137,
      "Ġreal": 1138,
      "ts": 1139,
      "Ġcourse": 1140,
      "Ġdoor": 1141,
      "Ġever": 1142,
      "Ġstay": 1143,
      "uff": 1144,
      "Ġcat": 1145,
      "ĠAn": 1146,
      "ump": 1147,
      "ĠTHE": 1148,
      "ush": 1149,
      "Ġwar": 1150,
      "az": 1151,
      "Ġret": 1152,
      "Ġtoday": 1153,
      "ĠJohn": 1154,
      "OU": 1155,
      "Ġside": 1156,
      "ject": 1157,
      "Okay": 1158,
      "ces": 1159,
      "Ġpass": 1160,
      "vent": 1161,
      "Ġeyes": 1162,
      "tern": 1163,
      "Ġknown": 1164,
      "Ġwom": 1165,
      "Ġlight": 1166,
      "orning": 1167,
      "Ġreg": 1168,
      "Ġred": 1169,
      "Ġpick": 1170,
      "ike": 1171,
      "Ġfew": 1172,
      "Now": 1173,
      "Ġnothing": 1174,
      "ason": 1175,
      "TEA": 1176,
      "eak": 1177,
      "Ġair": 1178,
      "Ġbest": 1179,
      "Ġsing": 1180,
      "ower": 1181,
      "ational": 1182,
      "Ġasked": 1183,
      "LL": 1184,
      "ible": 1185,
      "ĠAr": 1186,
      "Ġter": 1187,
      "Ġyoung": 1188,
      "rew": 1189,
      "Ġbelie": 1190,
      "Ġsix": 1191,
      "Than": 1192,
      "ired": 1193,
      "Ġyet": 1194,
      "Ġseen": 1195,
      "ĠMOT": 1196,
      "ial": 1197,
      "Ġchildren": 1198,
      "ird": 1199,
      "ames": 1200,
      "Ġph": 1201,
      "fta": 1202,
      "Ġhafta": 1203,
      "Ġdifferent": 1204,
      "Ġupon": 1205,
      "Ġremember": 1206,
      "ger": 1207,
      "Ġpap": 1208,
      "Come": 1209,
      "Ġfell": 1210,
      "ĠThere": 1211,
      "Ġhur": 1212,
      "Ġfall": 1213,
      "ĠMiss": 1214,
      "Ġmorning": 1215,
      "Ġsecond": 1216,
      "ĠMrs": 1217,
      "ross": 1218,
      "ier": 1219,
      "ased": 1220,
      ").": 1221,
      "Ġchar": 1222,
      "Ġleave": 1223,
      "Er": 1224,
      "Ġround": 1225,
      "Ġlist": 1226,
      "uring": 1227,
      "Ġent": 1228,
      "Ġinte": 1229,
      "ĠYou": 1230,
      "Ġdear": 1231,
      "Ġhands": 1232,
      "Ġmind": 1233,
      "fect": 1234,
      "ween": 1235,
      "Ġlooking": 1236,
      "Is": 1237,
      "orth": 1238,
      "gether": 1239,
      "Ġmar": 1240,
      "mb": 1241,
      "Ġtogether": 1242,
      "Ġkill": 1243,
      "Ġgetting": 1244,
      "ret": 1245,
      "Ġrel": 1246,
      "oor": 1247,
      "RA": 1248,
      "ING": 1249,
      "tle": 1250,
      "ures": 1251,
      "Ġmil": 1252,
      "cle": 1253,
      "Ġbro": 1254,
      "Let": 1255,
      "ash": 1256,
      "amp": 1257,
      "ines": 1258,
      "Ġsound": 1259,
      "ister": 1260,
      "ĠNew": 1261,
      "ok": 1262,
      "by": 1263,
      "Ġsmall": 1264,
      "ollow": 1265,
      "Ġhimself": 1266,
      "Ġrest": 1267,
      "Ġtri": 1268,
      "Ġonce": 1269,
      "ER": 1270,
      "ork": 1271,
      "Ġbetween": 1272,
      "Ġpret": 1273,
      "ĠEd": 1274,
      "Ġboth": 1275,
      "Ġsil": 1276,
      "ener": 1277,
      "Ġsleep": 1278,
      "omb": 1279,
      "Ġanim": 1280,
      "cha": 1281,
      "Ġfoot": 1282,
      "its": 1283,
      "FCH": 1284,
      "Ġpie": 1285,
      "Ġheart": 1286,
      "most": 1287,
      "Ġbad": 1288,
      "less": 1289,
      "huh": 1290,
      "ĠDe": 1291,
      "Mm": 1292,
      "Ġeach": 1293,
      "Ġhigh": 1294,
      "Ġhaving": 1295,
      "Hey": 1296,
      "ote": 1297,
      "Ġheard": 1298,
      "ĠGr": 1299,
      "Ġtable": 1300,
      "ctor": 1301,
      "ma": 1302,
      "ating": 1303,
      "ange": 1304,
      "Ġhalf": 1305,
      "Ġlater": 1306,
      "ĠInd": 1307,
      "Ġca": 1308,
      "Ġwithout": 1309,
      "ĠAmerican": 1310,
      "ball": 1311,
      "Ġcap": 1312,
      "Ġready": 1313,
      "reen": 1314,
      "Ġmm": 1315,
      "ĠTh": 1316,
      "der": 1317,
      "Ġmaking": 1318,
      "Ġwind": 1319,
      "ets": 1320,
      "ered": 1321,
      "Ġworld": 1322,
      "Ġnoise": 1323,
      "oice": 1324,
      "Ġsoon": 1325,
      "Ġalright": 1326,
      "Ġtop": 1327,
      "Ġcons": 1328,
      "Ġchair": 1329,
      "AD": 1330,
      "ten": 1331,
      "ents": 1332,
      "Ġsort": 1333,
      "Ġi": 1334,
      "Ġdec": 1335,
      "Ġpretty": 1336,
      "Ġperson": 1337,
      "Ġknew": 1338,
      "ĠMom": 1339,
      "stand": 1340,
      "ĠChr": 1341,
      "Ġpop": 1342,
      "Ġinst": 1343,
      "Ġagainst": 1344,
      "Ġdied": 1345,
      "ocal": 1346,
      "Ġlooked": 1347,
      "ises": 1348,
      "All": 1349,
      "Ġdire": 1350,
      "Ġmove": 1351,
      "ged": 1352,
      "any": 1353,
      "ama": 1354,
      "ON": 1355,
      "Ġmaybe": 1356,
      "Ġhappened": 1357,
      "Ġsk": 1358,
      "Ġwanted": 1359,
      "Ġeverything": 1360,
      "oe": 1361,
      "Ġtalking": 1362,
      "bo": 1363,
      "Ġhaven": 1364,
      "\",": 1365,
      "cept": 1366,
      "Ġ\"âĻª": 1367,
      "Ġmus": 1368,
      "ife": 1369,
      "une": 1370,
      "ted": 1371,
      "ched": 1372,
      "ision": 1373,
      "Ġfollow": 1374,
      "Ġhey": 1375,
      "osed": 1376,
      "Ġblack": 1377,
      "pped": 1378,
      "iet": 1379,
      "My": 1380,
      "Ġmiss": 1381,
      "ief": 1382,
      "Ġnumber": 1383,
      "Not": 1384,
      "Ġdog": 1385,
      "ertain": 1386,
      "www": 1387,
      "In": 1388,
      "Ġsn": 1389,
      "St": 1390,
      "br": 1391,
      "Ġmeet": 1392,
      "Ġans": 1393,
      "uss": 1394,
      "Ġfire": 1395,
      "ĠGer": 1396,
      "Ġdri": 1397,
      "Ġhell": 1398,
      "Ġhour": 1399,
      "den": 1400,
      "),": 1401,
      "Ġlive": 1402,
      "Ġbring": 1403,
      "Ġactually": 1404,
      "ĠDaddy": 1405,
      "Ġinterest": 1406,
      "ither": 1407,
      "Ġeight": 1408,
      "Ġgave": 1409,
      "tend": 1410,
      "ale": 1411,
      "OR": 1412,
      "key": 1413,
      "wards": 1414,
      "Ġborn": 1415,
      "cial": 1416,
      "Ġï¿": 1417,
      "Ġlar": 1418,
      "Ġass": 1419,
      "ches": 1420,
      "ubl": 1421,
      "Ġbreak": 1422,
      "Ġcut": 1423,
      "Ġdays": 1424,
      "Ġmoment": 1425,
      "Ġwond": 1426,
      "ĠBe": 1427,
      "Ġcur": 1428,
      "Ġfamily": 1429,
      "Ġgame": 1430,
      "ĠEng": 1431,
      "Ġadd": 1432,
      "clud": 1433,
      "Ġquest": 1434,
      "ern": 1435,
      "Ġsub": 1436,
      "bably": 1437,
      "Ġfood": 1438,
      "ual": 1439,
      "io": 1440,
      "iness": 1441,
      "ised": 1442,
      "Ġbelieve": 1443,
      "Ġaw": 1444,
      "Ġinv": 1445,
      "Ġdar": 1446,
      "Ġtrain": 1447,
      "Ġid": 1448,
      "Ġtrying": 1449,
      "ĠOn": 1450,
      "Ġhor": 1451,
      "Ġdin": 1452,
      "ced": 1453,
      "ĠUnited": 1454,
      "Ġtown": 1455,
      "sel": 1456,
      "Ġpaper": 1457,
      "Ġsince": 1458,
      "Ġmet": 1459,
      "aut": 1460,
      "ax": 1461,
      "Ġstory": 1462,
      "Ġhat": 1463,
      "Ġalong": 1464,
      "Ġboys": 1465,
      "Who": 1466,
      "Ġwhole": 1467,
      "Ġmatter": 1468,
      "but": 1469,
      "ready": 1470,
      "Ġfact": 1471,
      "sh": 1472,
      "Ġkid": 1473,
      "Ġalmost": 1474,
      "Ġfull": 1475,
      "ĠGod": 1476,
      "Ġref": 1477,
      "Ġpict": 1478,
      "Ġeas": 1479,
      "part": 1480,
      "icha": 1481,
      "Ġwasn": 1482,
      "app": 1483,
      "Ġdel": 1484,
      "Are": 1485,
      "Where": 1486,
      "Ġdraw": 1487,
      "Thank": 1488,
      "Ġten": 1489,
      "ĠCl": 1490,
      "Ġsqu": 1491,
      "Ġinter": 1492,
      "ield": 1493,
      "GRA": 1494,
      "uth": 1495,
      "enty": 1496,
      "Ġclose": 1497,
      "oke": 1498,
      "ative": 1499,
      "Just": 1500,
      "vers": 1501,
      "Ġhot": 1502,
      "hip": 1503,
      "ics": 1504,
      "ony": 1505,
      "ĠHar": 1506,
      "Ġstick": 1507,
      "Be": 1508,
      "Ġteam": 1509,
      "unt": 1510,
      "ular": 1511,
      "Ġunderstand": 1512,
      "orrow": 1513,
      "vern": 1514,
      "ye": 1515,
      "ĠAt": 1516,
      "Ġdrink": 1517,
      "arl": 1518,
      "ec": 1519,
      "Ġdoll": 1520,
      "ants": 1521,
      "Ġcomes": 1522,
      "aj": 1523,
      "ped": 1524,
      "ined": 1525,
      "Ġjob": 1526,
      "Ġstarted": 1527,
      "Ġsaying": 1528,
      "Ġswe": 1529,
      "ĠWe": 1530,
      "elt": 1531,
      "Ġalready": 1532,
      "ery": 1533,
      "Ġtra": 1534,
      "Ġspeak": 1535,
      "Ġreturn": 1536,
      "Ġpull": 1537,
      "Ġcity": 1538,
      "Ġguess": 1539,
      "Ġstuff": 1540,
      "Ġdarling": 1541,
      "ex": 1542,
      "to": 1543,
      "Ġrep": 1544,
      "aken": 1545,
      "Ġblue": 1546,
      "Ġexc": 1547,
      "aster": 1548,
      "Ġnear": 1549,
      "Ġlaugh": 1550,
      "ĠZ": 1551,
      "Ġwouldn": 1552,
      "ities": 1553,
      "Ġposs": 1554,
      "Ġwonder": 1555,
      "ouch": 1556,
      "Ġplaying": 1557,
      "ives": 1558,
      "Ġprobably": 1559,
      "ĠAf": 1560,
      "ĠChrist": 1561,
      "Ġdro": 1562,
      "Ġbuild": 1563,
      "Ġimp": 1564,
      "Ġsign": 1565,
      "ries": 1566,
      "Ġbrother": 1567,
      "Ġland": 1568,
      "Ġsent": 1569,
      "Ġtimes": 1570,
      "ĠSte": 1571,
      "Ġwoman": 1572,
      "Ġhair": 1573,
      "Ġplayed": 1574,
      "Ġdisc": 1575,
      "Ġwrong": 1576,
      "oup": 1577,
      "ina": 1578,
      "Ġfeet": 1579,
      "Ġinf": 1580,
      "kes": 1581,
      "Ġinc": 1582,
      "Right": 1583,
      "Good": 1584,
      "ues": 1585,
      "Ġproble": 1586,
      "where": 1587,
      "Ġhope": 1588,
      "oud": 1589,
      "Ġpur": 1590,
      "Ġson": 1591,
      "Ġcent": 1592,
      "Did": 1593,
      "ĠSo": 1594,
      "Ġminute": 1595,
      "iew": 1596,
      "Ġwhite": 1597,
      "Ġvoice": 1598,
      "Ġgi": 1599,
      "Ġfriends": 1600,
      "Ġpay": 1601,
      "rict": 1602,
      "Ġsy": 1603,
      "Ġinclud": 1604,
      "Look": 1605,
      "enn": 1606,
      "ĠStates": 1607,
      "ĠAd": 1608,
      "Ġduring": 1609,
      "ĠFl": 1610,
      "EN": 1611,
      "ying": 1612,
      "Ġmonth": 1613,
      "ific": 1614,
      "ĠJap": 1615,
      "Ġfloor": 1616,
      "Ġconf": 1617,
      "Ġcountry": 1618,
      "ring": 1619,
      "itting": 1620,
      "Ġmeans": 1621,
      "KF": 1622,
      "Ġplan": 1623,
      "Ġste": 1624,
      "ently": 1625,
      "Ġpoor": 1626,
      "Ġsim": 1627,
      "ully": 1628,
      "ense": 1629,
      "haps": 1630,
      "Ġidea": 1631,
      "Ġlost": 1632,
      "undred": 1633,
      "ital": 1634,
      "Ġyell": 1635,
      "aces": 1636,
      "ats": 1637,
      "Ġgotta": 1638,
      "airs": 1639,
      "Ġbrought": 1640,
      "ivers": 1641,
      "Ġmovie": 1642,
      "Ġquick": 1643,
      "Ġbecame": 1644,
      "Can": 1645,
      "Ġdeath": 1646,
      "Ġbeaut": 1647,
      "Ġleg": 1648,
      "UR": 1649,
      "Ġstud": 1650,
      "child": 1651,
      "aid": 1652,
      "Ġhappy": 1653,
      "ĠBen": 1654,
      "Ġyourself": 1655,
      "ĠThen": 1656,
      "Ġseemed": 1657,
      "Ġones": 1658,
      "ric": 1659,
      "Ġrather": 1660,
      "ize": 1661,
      "Ġform": 1662,
      "ones": 1663,
      "ĠHis": 1664,
      "ared": 1665,
      "oint": 1666,
      "Ã©": 1667,
      "Ġmine": 1668,
      "ster": 1669,
      "Ġgrand": 1670,
      "Then": 1671,
      "ages": 1672,
      "Ġexp": 1673,
      "Ġcoll": 1674,
      "oes": 1675,
      "ĠBart": 1676,
      "ĠIs": 1677,
      "Ġhundred": 1678,
      "Ġpain": 1679,
      "Ġshort": 1680,
      "cted": 1681,
      "eth": 1682,
      "ley": 1683,
      "Ġcertain": 1684,
      "ĠWhen": 1685,
      "âĻª\"": 1686,
      "Ġfine": 1687,
      "ĠâĢĵ": 1688,
      "olog": 1689,
      "Ġsir": 1690,
      "Ġgreen": 1691,
      "Ġgirls": 1692,
      "enc": 1693,
      "Ġturned": 1694,
      "Ġcontin": 1695,
      "Ġwin": 1696,
      "room": 1697,
      "wer": 1698,
      "Ġage": 1699,
      "ĠMay": 1700,
      "Ġweek": 1701,
      "Ġbegan": 1702,
      "Ġmusic": 1703,
      "Ġmag": 1704,
      "Ġbeh": 1705,
      "ald": 1706,
      "ape": 1707,
      "Ġexpl": 1708,
      "Ġstra": 1709,
      "Ġstate": 1710,
      "ĠUh": 1711,
      "Ġwords": 1712,
      "eter": 1713,
      "cess": 1714,
      "Ġgener": 1715,
      "bles": 1716,
      "ments": 1717,
      "ipp": 1718,
      "ober": 1719,
      "Ġdaddy": 1720,
      "Ġlead": 1721,
      "ene": 1722,
      "Ġmouth": 1723,
      "Ġfront": 1724,
      "Ġmakes": 1725,
      "ĠRe": 1726,
      "ese": 1727,
      "Ġaren": 1728,
      "ided": 1729,
      "Ġmyself": 1730,
      "Ġtaken": 1731,
      "Ġoutside": 1732,
      "]?\"": 1733,
      "Ġprod": 1734,
      "ention": 1735,
      "utes": 1736,
      "Ġsat": 1737,
      "Ġfav": 1738,
      "ĠSp": 1739,
      "son": 1740,
      "Ġprom": 1741,
      "Ġlady": 1742,
      "ĠTom": 1743,
      "ured": 1744,
      "Ġdat": 1745,
      "Ġparty": 1746,
      "Ġable": 1747,
      "Ġcolor": 1748,
      "ressed": 1749,
      ".'": 1750,
      "sing": 1751,
      "ask": 1752,
      "Ġarea": 1753,
      "Ġwants": 1754,
      "ison": 1755,
      "Ġfight": 1756,
      "Ġbehind": 1757,
      "aser": 1758,
      "Ġcry": 1759,
      "omba": 1760,
      "Ġhappen": 1761,
      "Ġtele": 1762,
      "rog": 1763,
      "ford": 1764,
      "Ġdead": 1765,
      "irty": 1766,
      "ik": 1767,
      "ĠDav": 1768,
      "Ġsong": 1769,
      "ized": 1770,
      "Ġtre": 1771,
      "When": 1772,
      "Ġcir": 1773,
      "ĠIN": 1774,
      "ĠCom": 1775,
      "Ġwrite": 1776,
      "ury": 1777,
      "olly": 1778,
      "used": 1779,
      "not": 1780,
      "Ġes": 1781,
      "Ġprov": 1782,
      "ral": 1783,
      "selves": 1784,
      "Ġtaking": 1785,
      "ruary": 1786,
      "Ġimport": 1787,
      "ebruary": 1788,
      "Ġfunny": 1789,
      "ole": 1790,
      "iful": 1791,
      "Ġless": 1792,
      "no": 1793,
      "DAD": 1794,
      "ĠFor": 1795,
      "fully": 1796,
      "Ġpat": 1797,
      "Ġfelt": 1798,
      "Ġmain": 1799,
      "Ġgiven": 1800,
      "RE": 1801,
      "iam": 1802,
      "Ġbusiness": 1803,
      "lish": 1804,
      "Ġoffic": 1805,
      "ned": 1806,
      "ĠCount": 1807,
      "Ġtoys": 1808,
      "ouble": 1809,
      "Ġcase": 1810,
      "Ġed": 1811,
      "Ġcra": 1812,
      "Ġoften": 1813,
      "Ġrecord": 1814,
      "Ġline": 1815,
      "Ġext": 1816,
      "Ġanimals": 1817,
      "Ġbear": 1818,
      "head": 1819,
      "ider": 1820,
      "Ġminutes": 1821,
      "Ġmommy": 1822,
      "ĠMommy": 1823,
      "ĠJapan": 1824,
      "Ġlear": 1825,
      "Ġguys": 1826,
      "Ġserv": 1827,
      "gin": 1828,
      "irth": 1829,
      "Ġbar": 1830,
      "Ġdeal": 1831,
      "Ġsometimes": 1832,
      "Ġquestion": 1833,
      "Ġya": 1834,
      "anger": 1835,
      "Ġchange": 1836,
      "ĠGe": 1837,
      "ĠFebruary": 1838,
      "Ġlate": 1839,
      "essie": 1840,
      "Ġ\"'": 1841,
      "ĠBomba": 1842,
      "EL": 1843,
      "ĠQ": 1844,
      "Ġmess": 1845,
      "Ġocc": 1846,
      "Ġtwenty": 1847,
      "Ġduck": 1848,
      "anor": 1849,
      "ĠCar": 1850,
      "Ġtom": 1851,
      "ĠFraser": 1852,
      "Ġpresent": 1853,
      "Erm": 1854,
      "rence": 1855,
      "ert": 1856,
      "ĠPh": 1857,
      "Ġpicture": 1858,
      "Ġeither": 1859,
      "lease": 1860,
      "Ġev": 1861,
      "reet": 1862,
      "Ġcold": 1863,
      "ained": 1864,
      "Ġhello": 1865,
      "Ġtill": 1866,
      "Ġmed": 1867,
      "ĠChar": 1868,
      "Ġleast": 1869,
      "ander": 1870,
      "Ġbase": 1871,
      "Ġseven": 1872,
      "Ġlisten": 1873,
      "ĠEle": 1874,
      "Ġsomeone": 1875,
      "ada": 1876,
      "Ġcouldn": 1877,
      "Ġpiece": 1878,
      "anu": 1879,
      "ĠOh": 1880,
      "ffe": 1881,
      "ĠWill": 1882,
      "Ġrock": 1883,
      "Ġyellow": 1884,
      "ots": 1885,
      "ides": 1886,
      "ĠTO": 1887,
      "Ġsweet": 1888,
      "LD": 1889,
      "ara": 1890,
      "gie": 1891,
      "amed": 1892,
      "Ġclot": 1893,
      "Ġhum": 1894,
      "Ġvis": 1895,
      "gan": 1896,
      "May": 1897,
      "ming": 1898,
      "Ġhi": 1899,
      "Go": 1900,
      "ards": 1901,
      "ey": 1902,
      "Ġem": 1903,
      "Ġboat": 1904,
      "Th": 1905,
      "owing": 1906,
      "ĠYork": 1907,
      "ĠIndian": 1908,
      "Ã¡": 1909,
      "aughter": 1910,
      "uly": 1911,
      "ze": 1912,
      "Ġcook": 1913,
      "arent": 1914,
      "Ġhorse": 1915,
      "Ġfig": 1916,
      "Ġins": 1917,
      "eng": 1918,
      "Ġpubl": 1919,
      "unch": 1920,
      "ains": 1921,
      "Ġlarge": 1922,
      "Ġroad": 1923,
      "Ġhurt": 1924,
      "IT": 1925,
      "ĠPr": 1926,
      "Ġdef": 1927,
      "Ġguy": 1928,
      "ĠLe": 1929,
      "fort": 1930,
      "Ġfif": 1931,
      "iously": 1932,
      "Ġstrong": 1933,
      "Ġpolit": 1934,
      "ĠBl": 1935,
      "Ġpri": 1936,
      "UN": 1937,
      "born": 1938,
      "Ġago": 1939,
      "ĠYeah": 1940,
      "een": 1941,
      "Ġinside": 1942,
      "idge": 1943,
      "Ġwife": 1944,
      "unk": 1945,
      "rap": 1946,
      "Ġbeautiful": 1947,
      "Ġwish": 1948,
      "Ġalone": 1949,
      "Ġmid": 1950,
      "Ġgovern": 1951,
      "Ġrepl": 1952,
      "Get": 1953,
      "ham": 1954,
      "Ġbirth": 1955,
      "--------": 1956,
      "Ġherself": 1957,
      "Ġothers": 1958,
      "illy": 1959,
      "Ġbody": 1960,
      "Ġeng": 1961,
      "ution": 1962,
      "ĠMag": 1963,
      "zz": 1964,
      "Ġdark": 1965,
      "Ġtrue": 1966,
      "AS": 1967,
      "ĠCounty": 1968,
      "ounc": 1969,
      "Ġdinner": 1970,
      "dle": 1971,
      "iting": 1972,
      "Ġbooks": 1973,
      "read": 1974,
      "ica": 1975,
      "Ġground": 1976,
      "ĠâĻª\"": 1977,
      "Ġimportant": 1978,
      "Ġreason": 1979,
      "Ġpower": 1980,
      "Ġfing": 1981,
      "Your": 1982,
      "Ġfore": 1983,
      "Ġfish": 1984,
      "Ġletter": 1985,
      "ĠBessie": 1986,
      "Ġcheck": 1987,
      "ĠYOU": 1988,
      "aul": 1989,
      "you": 1990,
      "ĠHer": 1991,
      "aim": 1992,
      "ĠAll": 1993,
      "LE": 1994,
      "ĠPe": 1995,
      "ety": 1996,
      "atur": 1997,
      "TER": 1998,
      "aur": 1999,
      "Ġtree": 2000,
      "Ġfair": 2001,
      "oub": 2002,
      "Ġopp": 2003,
      "lex": 2004,
      "Ġfinished": 2005,
      "Ġblock": 2006,
      "Ġgets": 2007,
      "Ġclean": 2008,
      "Ġmill": 2009,
      "ĠIf": 2010,
      "Ġmark": 2011,
      "Ġwear": 2012,
      "Ġworking": 2013,
      "har": 2014,
      "ept": 2015,
      "Ġty": 2016,
      "Ġtrans": 2017,
      "Ġlay": 2018,
      "ator": 2019,
      "Ġlad": 2020,
      "anuary": 2021,
      "Ġsister": 2022,
      "let": 2023,
      "II": 2024,
      "ists": 2025,
      "ousand": 2026,
      "Ġadv": 2027,
      "Ġgun": 2028,
      "aced": 2029,
      "ĠBar": 2030,
      "ately": 2031,
      "oof": 2032,
      "RI": 2033,
      "ĠPro": 2034,
      "Ġpast": 2035,
      "Ġforg": 2036,
      "Ġlov": 2037,
      "els": 2038,
      "Ġorder": 2039,
      "Ġsum": 2040,
      "Ġmot": 2041,
      "Ġpartic": 2042,
      "Mr": 2043,
      "ĠCH": 2044,
      "Ġsun": 2045,
      "Ġtried": 2046,
      "Ġfuck": 2047,
      "Ġhon": 2048,
      "Ġrece": 2049,
      "ĠCon": 2050,
      "Ġamong": 2051,
      "for": 2052,
      "gy": 2053,
      "Ġexam": 2054,
      "iving": 2055,
      "iding": 2056,
      "Ġearly": 2057,
      "Ġart": 2058,
      "ĠSc": 2059,
      "ĠBob": 2060,
      "umb": 2061,
      "itch": 2062,
      "ĠDavid": 2063,
      "ana": 2064,
      "Ġacross": 2065,
      "Ġbat": 2066,
      "ead": 2067,
      "Ġpos": 2068,
      "Ġtouch": 2069,
      "Ġsitting": 2070,
      "ĠWar": 2071,
      "Ġbath": 2072,
      "Ġra": 2073,
      "ĠHow": 2074,
      "Ġlo": 2075,
      "ken": 2076,
      "For": 2077,
      "Ġriver": 2078,
      "angu": 2079,
      "Ġproblem": 2080,
      "ĠEnglish": 2081,
      "Ġreac": 2082,
      "end": 2083,
      "teen": 2084,
      "pril": 2085,
      "ĠChi": 2086,
      "ichael": 2087,
      "ĠEleanor": 2088,
      "Ġroll": 2089,
      "ering": 2090,
      "Ġstar": 2091,
      "Ġda": 2092,
      "Ġprot": 2093,
      "Ġfootball": 2094,
      "Ġdistrict": 2095,
      "Ġbur": 2096,
      "Ġsomebody": 2097,
      "Ġglad": 2098,
      "lly": 2099,
      "Ġchance": 2100,
      "Ġran": 2101,
      "Here": 2102,
      "Ġcup": 2103,
      "ĠTH": 2104,
      "ĠJanuary": 2105,
      "gas": 2106,
      "rat": 2107,
      "Ġfree": 2108,
      "ĠAfter": 2109,
      "bit": 2110,
      "cri": 2111,
      "ement": 2112,
      "Ġconc": 2113,
      "Ġexpect": 2114,
      "Ġbuy": 2115,
      "Ġmilk": 2116,
      "ality": 2117,
      "URS": 2118,
      "ĠEl": 2119,
      "ĠX": 2120,
      "owed": 2121,
      "Ġnews": 2122,
      "Ġclass": 2123,
      "fr": 2124,
      "Ġattack": 2125,
      "Ġsever": 2126,
      "ism": 2127,
      "ices": 2128,
      "acher": 2129,
      "ovember": 2130,
      "bed": 2131,
      "Ġthousand": 2132,
      "Ġlived": 2133,
      "On": 2134,
      "Ġseems": 2135,
      "ek": 2136,
      "ĠTr": 2137,
      "Ġsilver": 2138,
      "Ġjo": 2139,
      "Ġtea": 2140,
      "ĠThat": 2141,
      "Ġbag": 2142,
      "Ġkiss": 2143,
      "Ġphone": 2144,
      "raid": 2145,
      "men": 2146,
      "Ġnine": 2147,
      "Ġfavor": 2148,
      "ature": 2149,
      "Ġhit": 2150,
      "Ġheld": 2151,
      "Ġknows": 2152,
      "velop": 2153,
      "Ġtomorrow": 2154,
      "ĠPhil": 2155,
      "AP": 2156,
      "ges": 2157,
      "Ġfrog": 2158,
      "Ġlaw": 2159,
      "Ġfast": 2160,
      "ional": 2161,
      "ĠWor": 2162,
      "Ġthinking": 2163,
      "Ġobject": 2164,
      "ium": 2165,
      "Ġseveral": 2166,
      "Ġpu": 2167,
      "Ġkilled": 2168,
      "eared": 2169,
      "Ġappro": 2170,
      "Sh": 2171,
      "ued": 2172,
      "Ġ-": 2173,
      "Ġbird": 2174,
      "US": 2175,
      "OL": 2176,
      "Ġtakes": 2177,
      "Ġz": 2178,
      "Ġyours": 2179,
      "Ġcreat": 2180,
      "ĠKing": 2181,
      "Ġseries": 2182,
      "Ġarm": 2183,
      "Ġresp": 2184,
      "alth": 2185,
      "ĠBrit": 2186,
      "Ġquiet": 2187,
      "Ġdad": 2188,
      "ically": 2189,
      "ĠNo": 2190,
      "eed": 2191,
      "Because": 2192,
      "Ġmod": 2193,
      "Ġgroup": 2194,
      "Ġsurpr": 2195,
      "Ah": 2196,
      "iter": 2197,
      "Ġlangu": 2198,
      "ĠGu": 2199,
      "Ġperhaps": 2200,
      "Ġcompany": 2201,
      "itc": 2202,
      "Ġpot": 2203,
      "Ġsend": 2204,
      "arch": 2205,
      "ĠNovember": 2206,
      "ĠGeor": 2207,
      "Ġlovely": 2208,
      "Ġtoy": 2209,
      "ney": 2210,
      "min": 2211,
      "zy": 2212,
      "Al": 2213,
      "Ġblood": 2214,
      "ilt": 2215,
      "vision": 2216,
      "Ġwood": 2217,
      "Ġooh": 2218,
      "ived": 2219,
      "though": 2220,
      "Ġdress": 2221,
      "ĠOF": 2222,
      "Ġconst": 2223,
      "--\"": 2224,
      "itten": 2225,
      "iversity": 2226,
      "Ġjump": 2227,
      "ulation": 2228,
      "amer": 2229,
      "rench": 2230,
      "Ġwall": 2231,
      "ere": 2232,
      "Ġnose": 2233,
      "Ġliving": 2234,
      "Ġkept": 2235,
      "ĠMin": 2236,
      "osp": 2237,
      "singing": 2238,
      "ĠSh": 2239,
      "ician": 2240,
      "Ġsoft": 2241,
      "Ġusually": 2242,
      "ello": 2243,
      "Ġcarry": 2244,
      "Ġpar": 2245,
      "arth": 2246,
      "Ġafraid": 2247,
      "Ġwow": 2248,
      "gue": 2249,
      "ility": 2250,
      "ays": 2251,
      "stem": 2252,
      "Ġear": 2253,
      "ĠJane": 2254,
      "Ġpoints": 2255,
      "erv": 2256,
      "Ġbirthday": 2257,
      "ract": 2258,
      "Ġdaughter": 2259,
      "Ġheav": 2260,
      "ĠPl": 2261,
      "ient": 2262,
      "ĠGerman": 2263,
      "Ġuhhuh": 2264,
      "que": 2265,
      "ĠSteven": 2266,
      "Ġstep": 2267,
      "Ġcou": 2268,
      "Ġcounty": 2269,
      "Ġfix": 2270,
      "co": 2271,
      "Ġrele": 2272,
      "Ġstraight": 2273,
      "Ġnorth": 2274,
      "Ġanswer": 2275,
      "ler": 2276,
      "iff": 2277,
      "Ġsold": 2278,
      "Ġdepart": 2279,
      "ĠMaggie": 2280,
      "Ġ*": 2281,
      "ĠMc": 2282,
      "Ġhist": 2283,
      "To": 2284,
      "Ġtick": 2285,
      "Ġreport": 2286,
      "irt": 2287,
      "Ġprof": 2288,
      "overed": 2289,
      "Ġlots": 2290,
      "Ġcorn": 2291,
      "Ġann": 2292,
      "Ġrunning": 2293,
      "Ġnin": 2294,
      "Ġclear": 2295,
      "unic": 2296,
      "Ġshop": 2297,
      "att": 2298,
      "Ġcharac": 2299,
      "ĠMama": 2300,
      "Ġmember": 2301,
      "ĠCan": 2302,
      "ĠWorld": 2303,
      "mon": 2304,
      "aint": 2305,
      "Ġvocal": 2306,
      "ED": 2307,
      "Ġtrouble": 2308,
      "com": 2309,
      "Ġice": 2310,
      "ĠAN": 2311,
      "Ġain": 2312,
      "Ġwithin": 2313,
      "ause": 2314,
      "OM": 2315,
      "ctober": 2316,
      "Ġcray": 2317,
      "Ġeating": 2318,
      "ounter": 2319,
      "dden": 2320,
      "ĠCol": 2321,
      "ĠJack": 2322,
      "ĠOne": 2323,
      "ration": 2324,
      "Ġcamp": 2325,
      "Ġbegin": 2326,
      "Ġmonths": 2327,
      "Ġfield": 2328,
      "Ġseat": 2329,
      "Ġdiff": 2330,
      "Ġfur": 2331,
      "Ġbecome": 2332,
      "Please": 2333,
      "Ġhours": 2334,
      "Ġve": 2335,
      "ajor": 2336,
      "Ġcareful": 2337,
      "band": 2338,
      "Ġstood": 2339,
      "Ġworked": 2340,
      "wered": 2341,
      "âĢĶ": 2342,
      "gram": 2343,
      "ĠWhat": 2344,
      "Ġvill": 2345,
      "Ġnamed": 2346,
      "makes": 2347,
      "Ġcannot": 2348,
      "Ġcross": 2349,
      "Ġsudden": 2350,
      "Ġgra": 2351,
      "Ġsea": 2352,
      "Ġwhether": 2353,
      "Ġbreat": 2354,
      "ĠJuly": 2355,
      "ls": 2356,
      "Ġhung": 2357,
      "ĠApril": 2358,
      "urch": 2359,
      "ggy": 2360,
      "Ġmarried": 2361,
      "ounds": 2362,
      "Ġtired": 2363,
      "Ġwomen": 2364,
      "Ġforward": 2365,
      "Ġcried": 2366,
      "Ġring": 2367,
      "ping": 2368,
      "ĠMan": 2369,
      "Ġthrow": 2370,
      "Ġeverybody": 2371,
      "Ġcor": 2372,
      "Ġthemselves": 2373,
      "actly": 2374,
      "Ġpage": 2375,
      "Ġfit": 2376,
      "entle": 2377,
      "Ġanswered": 2378,
      "eptember": 2379,
      "Ġclothes": 2380,
      "par": 2381,
      "Ġhang": 2382,
      "ccess": 2383,
      "Ġlives": 2384,
      "Ġsuppose": 2385,
      "Ġspecial": 2386,
      "Have": 2387,
      "erc": 2388,
      "hern": 2389,
      "Ġdream": 2390,
      "ugust": 2391,
      "Ġclim": 2392,
      "Ġseem": 2393,
      "aged": 2394,
      "Ġdevelop": 2395,
      "Ġcatch": 2396,
      "As": 2397,
      "Ġsand": 2398,
      "Ġlow": 2399,
      "Ġton": 2400,
      "ude": 2401,
      "ĠJoe": 2402,
      "Ġpassed": 2403,
      ",'": 2404,
      "Ġcond": 2405,
      "Ġcomple": 2406,
      "Ġband": 2407,
      "ories": 2408,
      "ĠOctober": 2409,
      "ĠCap": 2410,
      "ored": 2411,
      "empt": 2412,
      "Ġrain": 2413,
      "Ġpig": 2414,
      "Ġeasy": 2415,
      "Ġpost": 2416,
      "Ġknock": 2417,
      "ĠSIS": 2418,
      "Ġpretend": 2419,
      "Ġfly": 2420,
      "ĠAb": 2421,
      "Ġcouple": 2422,
      "ights": 2423,
      "Ġspec": 2424,
      "ĠPaul": 2425,
      "Ġproper": 2426,
      "Ġpossible": 2427,
      "Ġfil": 2428,
      "oth": 2429,
      "ĠNorth": 2430,
      "Ġla": 2431,
      "Ġdoctor": 2432,
      "Ġbroken": 2433,
      "ouncil": 2434,
      "Ex": 2435,
      "ĠWell": 2436,
      "ding": 2437,
      "Ġill": 2438,
      "mother": 2439,
      "Ġegg": 2440,
      "ĠMe": 2441,
      "ĠCr": 2442,
      "Ġsystem": 2443,
      "wo": 2444,
      "Ġfeeling": 2445,
      "Ġpleas": 2446,
      "Ġ.": 2447,
      "Ġsounds": 2448,
      "Ġputting": 2449,
      "Ġdanger": 2450,
      "Ġtelevision": 2451,
      "ondon": 2452,
      "ĠAust": 2453,
      "Ġstation": 2454,
      "stairs": 2455,
      "net": 2456,
      "uk": 2457,
      "Ġnational": 2458,
      "ĠMichael": 2459,
      "Ġexper": 2460,
      "Ġpolic": 2461,
      "oops": 2462,
      "Ġdoub": 2463,
      "unity": 2464,
      "ĠPat": 2465,
      "Ġcontro": 2466,
      "ĠEdna": 2467,
      "icks": 2468,
      "Ġju": 2469,
      "Ġdiffic": 2470,
      "joy": 2471,
      "Ġcow": 2472,
      "Ġhors": 2473,
      "gar": 2474,
      "rigin": 2475,
      "ĠSeptember": 2476,
      "Ġdest": 2477,
      "Ġslow": 2478,
      "Ġord": 2479,
      "Ġarri": 2480,
      "Ġmillion": 2481,
      "Ġlikes": 2482,
      "gasps": 2483,
      "ĠAdam": 2484,
      "ffect": 2485,
      "Ġwindow": 2486,
      "Ġkids": 2487,
      "Of": 2488,
      "Ġpush": 2489,
      "Maybe": 2490,
      "ID": 2491,
      "One": 2492,
      "Ġabs": 2493,
      "Ġcool": 2494,
      "Ġview": 2495,
      "ogn": 2496,
      "Ġarms": 2497,
      "ears": 2498,
      "Ġneeds": 2499,
      "Ġdie": 2500,
      "uts": 2501,
      "ĠCal": 2502,
      "owers": 2503,
      "ĠSouth": 2504,
      "eal": 2505,
      "ĠAugust": 2506,
      "itty": 2507,
      "ager": 2508,
      "Ġdiv": 2509,
      "TH": 2510,
      "Hello": 2511,
      "Ġcirc": 2512,
      "more": 2513,
      "Ġsal": 2514,
      "Ġforget": 2515,
      "ĠLondon": 2516,
      "Ġreleased": 2517,
      "Ġgovernment": 2518,
      "Ġcause": 2519,
      "ÃŃ": 2520,
      "bs": 2521,
      "Ġstat": 2522,
      "ances": 2523,
      "Ġwaiting": 2524,
      "over": 2525,
      "Ġgentle": 2526,
      "GH": 2527,
      "ai": 2528,
      "Ġoper": 2529,
      "Ġworry": 2530,
      "box": 2531,
      "SS": 2532,
      "Ġsupport": 2533,
      "form": 2534,
      "ox": 2535,
      "Ġabove": 2536,
      "friend": 2537,
      "ĠSw": 2538,
      "Ġmoved": 2539,
      "va": 2540,
      "Ġwhatever": 2541,
      "ked": 2542,
      "Ġnoises": 2543,
      "ĠNow": 2544,
      "Ġvar": 2545,
      "Ġhowever": 2546,
      "ode": 2547,
      "ĠGrand": 2548,
      "Ġhus": 2549,
      "ĠEur": 2550,
      "Ġking": 2551,
      "Ġoffice": 2552,
      "ĠCity": 2553,
      "rop": 2554,
      "emy": 2555,
      "Ġevent": 2556,
      "ardon": 2557,
      "..\"": 2558,
      "Ġmur": 2559,
      "Ġhar": 2560,
      "igg": 2561,
      "ĠFrance": 2562,
      "Ġtonight": 2563,
      "Ġequ": 2564,
      "Ġputs": 2565,
      "cember": 2566,
      "cient": 2567,
      "Ġmiles": 2568,
      "Ġest": 2569,
      "rod": 2570,
      "babbles": 2571,
      "Ġseason": 2572,
      "ops": 2573,
      "Ġsuccess": 2574,
      "Ġchanged": 2575,
      "Ġ.\"": 2576,
      "ĠAlex": 2577,
      "Ġorgan": 2578,
      "Ġstanding": 2579,
      "Ġrequ": 2580,
      "Every": 2581,
      "oose": 2582,
      "Ġtruck": 2583,
      "Ġtelling": 2584,
      "resent": 2585,
      "Ġforgot": 2586,
      "Ġgold": 2587,
      "oren": 2588,
      "Ġsca": 2589,
      "ĠTe": 2590,
      "Ġrecogn": 2591,
      "uced": 2592,
      "come": 2593,
      "ĠAunt": 2594,
      "uce": 2595,
      "Ġperfect": 2596,
      "ĠThom": 2597,
      "Ġfa": 2598,
      "Ġtowards": 2599,
      "Ġwhom": 2600,
      "Ġshoot": 2601,
      "Ġpolice": 2602,
      "alc": 2603,
      "yl": 2604,
      "sings": 2605,
      "Ġcaught": 2606,
      "Ġ\"=": 2607,
      "urs": 2608,
      "Ġluck": 2609,
      "Ġmeant": 2610,
      "Ġshot": 2611,
      "Ġshar": 2612,
      "Ġwhose": 2613,
      "Any": 2614,
      "Ġeffect": 2615,
      "Ġbye": 2616,
      "Ġstru": 2617,
      "ising": 2618,
      "fer": 2619,
      "Ġmist": 2620,
      "Ġnearly": 2621,
      "ceed": 2622,
      "ĠMarch": 2623,
      "terday": 2624,
      "Ġanyway": 2625,
      "Ġgod": 2626,
      "Ġenjoy": 2627,
      "Ġreturned": 2628,
      "noon": 2629,
      "Ġexcl": 2630,
      "ĠFrench": 2631,
      "mbers": 2632,
      "fast": 2633,
      "ĠCharl": 2634,
      "itchen": 2635,
      "ror": 2636,
      "amb": 2637,
      "Ġshoes": 2638,
      "Ġwritten": 2639,
      "VE": 2640,
      "ified": 2641,
      "mas": 2642,
      "Ġshut": 2643,
      "ĠJune": 2644,
      "Ġow": 2645,
      "la": 2646,
      "Ġpen": 2647,
      "ffee": 2648,
      "ray": 2649,
      "]!\"": 2650,
      "Ġcos": 2651,
      "Ġpress": 2652,
      "Ġhop": 2653,
      "Ġformer": 2654,
      "iron": 2655,
      "ĠUniversity": 2656,
      "ĠSir": 2657,
      "Ġvocalises": 2658,
      "reed": 2659,
      "Ġdirect": 2660,
      "Ġesc": 2661,
      "Ġthirty": 2662,
      "ĠMa": 2663,
      "Ġcover": 2664,
      "phone": 2665,
      "uit": 2666,
      "ĠDo": 2667,
      "Ġorigin": 2668,
      "Ġkitchen": 2669,
      "ĠJose": 2670,
      "Ġafternoon": 2671,
      "counter": 2672,
      "Ġtest": 2673,
      "Ġsick": 2674,
      ",--": 2675,
      "ĠWest": 2676,
      "Ġprogram": 2677,
      "Ġpract": 2678,
      "rupt": 2679,
      "tom": 2680,
      "Ġtape": 2681,
      "nded": 2682,
      "Ġfill": 2683,
      "Ġboard": 2684,
      "Ġclos": 2685,
      "ĠDon": 2686,
      "ior": 2687,
      "ggest": 2688,
      "Ġquickly": 2689,
      "Ġlanguage": 2690,
      "Ġdet": 2691,
      "Ġdisapp": 2692,
      "ency": 2693,
      "well": 2694,
      "ĠRep": 2695,
      "ĠDecember": 2696,
      "CHILD": 2697,
      "Ġjack": 2698,
      "Ġhusband": 2699,
      "Wh": 2700,
      "Ġbroke": 2701,
      "'.\"": 2702,
      "uct": 2703,
      "Ġchick": 2704,
      "ground": 2705,
      "Ġbuilding": 2706,
      "ĠPres": 2707,
      "Ġride": 2708,
      "ience": 2709,
      "Ġturns": 2710,
      "cially": 2711,
      "Ġfellow": 2712,
      "Ġfat": 2713,
      "Ġban": 2714,
      "Ġmis": 2715,
      "Ġfear": 2716,
      "rible": 2717,
      "Ġsuggest": 2718,
      "Ġtoward": 2719,
      "Ġ=\"": 2720,
      "Ġchildes": 2721,
      "CHILDES": 2722,
      "Ġahead": 2723,
      "Ġship": 2724,
      "Ġfarm": 2725,
      "aimed": 2726,
      "Ġdeep": 2727,
      "Ġexactly": 2728,
      "Ġlonger": 2729,
      "che": 2730,
      "Ġought": 2731,
      "Ġcost": 2732,
      "ula": 2733,
      "Ġfollowing": 2734,
      "Ġeye": 2735,
      "Ġdrive": 2736,
      "ĠBritish": 2737,
      "that": 2738,
      "arden": 2739,
      "AM": 2740,
      "OW": 2741,
      "lo": 2742,
      "ĠSe": 2743,
      "Ġposition": 2744,
      "Ġmad": 2745,
      "ĠNational": 2746,
      "yn": 2747,
      "Ġcharacter": 2748,
      "Ġ\"(": 2749,
      "Ġisland": 2750,
      "Ġexcept": 2751,
      "Ġfort": 2752,
      "ĠRos": 2753,
      "ĠThomas": 2754,
      "oop": 2755,
      "Ġreplied": 2756,
      "view": 2757,
      "Ġinstead": 2758,
      "See": 2759,
      "Ġav": 2760,
      "Ġsight": 2761,
      "Ġmembers": 2762,
      "ĠDan": 2763,
      "Ġsafe": 2764,
      "Ġpopulation": 2765,
      "ĠDr": 2766,
      "Ġprop": 2767,
      "ĠMy": 2768,
      "Ġvisit": 2769,
      "Ġfigure": 2770,
      "Ġevening": 2771,
      "Ġsave": 2772,
      "reek": 2773,
      "Ġpublic": 2774,
      "Ġdepartment": 2775,
      "Ġanyone": 2776,
      "Ġfinish": 2777,
      "Ġtot": 2778,
      "Ġlie": 2779,
      "Ġdem": 2780,
      "con": 2781,
      "oles": 2782,
      "Ġcommon": 2783,
      "Ġtow": 2784,
      "Ġmonkey": 2785,
      "Ġwild": 2786,
      "Ġhaha": 2787,
      "Ġhappens": 2788,
      "Ġparent": 2789,
      "Ġyesterday": 2790,
      "Ġwrote": 2791,
      "Ġspend": 2792,
      "Ġworth": 2793,
      "ighb": 2794,
      "Ġcast": 2795,
      "Ġsuper": 2796,
      "uthor": 2797,
      "ti": 2798,
      "uation": 2799,
      "Ġmiddle": 2800,
      "AL": 2801,
      "Hi": 2802,
      "nes": 2803,
      "Ġstuck": 2804,
      "ĠSome": 2805,
      "Ġwhis": 2806,
      "ift": 2807,
      "Ġeh": 2808,
      "Ġdi": 2809,
      "ĠPol": 2810,
      "ĠGo": 2811,
      "Ġprotect": 2812,
      "Ġcoffee": 2813,
      "Ġcurrent": 2814,
      "Ġtem": 2815,
      "Ġru": 2816,
      "ĠBy": 2817,
      "Ġpieces": 2818,
      "Ġdecided": 2819,
      "OK": 2820,
      "idence": 2821,
      "ffic": 2822,
      "ĠFrank": 2823,
      "Ġinterested": 2824,
      "ospital": 2825,
      "COL": 2826,
      "Ġcamer": 2827,
      "Ġbutter": 2828,
      "ĠComm": 2829,
      "ums": 2830,
      "acy": 2831,
      "hile": 2832,
      "ĠBrad": 2833,
      "hel": 2834,
      "night": 2835,
      "Ġmount": 2836,
      "time": 2837,
      "Ġbow": 2838,
      "ĠJe": 2839,
      "ians": 2840,
      "ĠEngland": 2841,
      "ELS": 2842,
      "Ġsus": 2843,
      "Ġgiving": 2844,
      "ichard": 2845,
      "ron": 2846,
      "Ġmeeting": 2847,
      "Ġjuice": 2848,
      "gest": 2849,
      "Ġplaces": 2850,
      "Ġbuilt": 2851,
      "Ġservice": 2852,
      "ege": 2853,
      "Ġheavy": 2854,
      "sc": 2855,
      "what": 2856,
      "Ġgames": 2857,
      "Ġang": 2858,
      "Ġsupposed": 2859,
      "eddy": 2860,
      "ĠAm": 2861,
      "ology": 2862,
      "Ġlearn": 2863,
      "iod": 2864,
      "Ġbes": 2865,
      "Ġiss": 2866,
      "Ġusing": 2867,
      "Ġdoubt": 2868,
      "rs": 2869,
      "Ġtreat": 2870,
      "tered": 2871,
      "ĠEve": 2872,
      "Ġteacher": 2873,
      "Ġburn": 2874,
      "Ġsilence": 2875,
      "Ġcomplete": 2876,
      "bert": 2877,
      "Ġfollowed": 2878,
      "Ġdam": 2879,
      "Ġrad": 2880,
      "APTER": 2881,
      "ĠCaptain": 2882,
      "orence": 2883,
      "eally": 2884,
      "Ġswim": 2885,
      "Sorry": 2886,
      "iling": 2887,
      "Ġfavorite": 2888,
      "Ġtrust": 2889,
      "ushed": 2890,
      "ĠJoseph": 2891,
      "At": 2892,
      "IC": 2893,
      "note": 2894,
      "olute": 2895,
      "Ġstri": 2896,
      "ott": 2897,
      "Ġthird": 2898,
      "Ġreached": 2899,
      "itted": 2900,
      "Ġopened": 2901,
      "Thanks": 2902,
      "ĠCHAPTER": 2903,
      "ishing": 2904,
      "Ġlegs": 2905,
      "Ġpolitician": 2906,
      "An": 2907,
      "Ġsilly": 2908,
      "Ġbas": 2909,
      "ĠWith": 2910,
      "ĠEurope": 2911,
      "Ġfail": 2912,
      "Ġsomewhere": 2913,
      "king": 2914,
      "Ġcop": 2915,
      "Ġpardon": 2916,
      "Ġgrow": 2917,
      "Ġsnow": 2918,
      "Ġcertainly": 2919,
      "Ġval": 2920,
      "Ġstopped": 2921,
      "Ġstore": 2922,
      "Ġappear": 2923,
      "Ġanimal": 2924,
      "Ġbreakfast": 2925,
      "Ġtur": 2926,
      "Ġclub": 2927,
      "Ġquar": 2928,
      "Some": 2929,
      "oul": 2930,
      "iny": 2931,
      "unicip": 2932,
      "Ġbelong": 2933,
      "ĠFlorence": 2934,
      "Foot": 2935,
      "cent": 2936,
      "ips": 2937,
      "Ġpack": 2938,
      "bur": 2939,
      "ging": 2940,
      "Ġled": 2941,
      "Ġindeed": 2942,
      "iled": 2943,
      "erry": 2944,
      "Ġshout": 2945,
      "Ġmam": 2946,
      "Ġlunch": 2947,
      "Ġletters": 2948,
      "Ġblow": 2949,
      "Ġprofess": 2950,
      "Uh": 2951,
      "whis": 2952,
      "Ġconsider": 2953,
      "Ġgeneral": 2954,
      "Ġcomfort": 2955,
      "Ġresult": 2956,
      "Ġstreet": 2957,
      "Ġmatch": 2958,
      "Ġbought": 2959,
      "Ġcrayon": 2960,
      "de": 2961,
      "Ġsingle": 2962,
      "iles": 2963,
      "Ġlevel": 2964,
      "Ġmajor": 2965,
      "ills": 2966,
      "AND": 2967,
      "Ġsecret": 2968,
      "Ġpresident": 2969,
      "Ġinform": 2970,
      "Or": 2971,
      "Ġneck": 2972,
      "Ġleaving": 2973,
      "Ġlocal": 2974,
      "ĠSha": 2975,
      "ĠPar": 2976,
      "Ġstrange": 2977,
      "Ġaccount": 2978,
      "Ġreceived": 2979,
      "Ġworks": 2980,
      "aves": 2981,
      "ĠWh": 2982,
      "Ġwatches": 2983,
      "eder": 2984,
      "ĠRichard": 2985,
      "ĠJim": 2986,
      "Ġholds": 2987,
      "Ġregion": 2988,
      "onel": 2989,
      "Ġweeks": 2990,
      "mpions": 2991,
      "Ġbull": 2992,
      "Ġdep": 2993,
      "Really": 2994,
      "rit": 2995,
      "Ġremark": 2996,
      "ĠGeorge": 2997,
      "Ġdifficult": 2998,
      "Ġcamera": 2999,
      "Ġcre": 3000,
      "Ġperiod": 3001,
      "ternational": 3002,
      "Ġalthough": 3003,
      "Ġeveryone": 3004,
      "Ġadm": 3005,
      "Footnote": 3006,
      "Ġpark": 3007,
      "ĠMum": 3008,
      "Ġsense": 3009,
      "phan": 3010,
      "omin": 3011,
      "Ġwarm": 3012,
      "ĠTo": 3013,
      "Ġdecl": 3014,
      "Ġexample": 3015,
      "Ġce": 3016,
      "Ġmaster": 3017,
      "Ġkick": 3018,
      "Ġsol": 3019,
      "Ġmention": 3020,
      "Ġreach": 3021,
      "Fr": 3022,
      "Ġcareer": 3023,
      "Ġut": 3024,
      "ĠOr": 3025,
      "Ġbottom": 3026,
      "Ġdry": 3027,
      "ĠJwww": 3028,
      "go": 3029,
      "ino": 3030,
      "Ġlift": 3031,
      "isc": 3032,
      "Ġapart": 3033,
      "ĠWilliam": 3034,
      "rie": 3035,
      "Ġaccept": 3036,
      "Ġcrying": 3037,
      "iday": 3038,
      "Ġdefe": 3039,
      "bl": 3040,
      "Ġleaves": 3041,
      "Ġrub": 3042,
      "ille": 3043,
      "Ġfinger": 3044,
      "bers": 3045,
      "work": 3046,
      "Ġbang": 3047,
      "Ġemp": 3048,
      "alm": 3049,
      "Ġbrown": 3050,
      "Ġexpress": 3051,
      "Ġhoney": 3052,
      "Ġcand": 3053,
      "Ġorange": 3054,
      "Ġhuman": 3055,
      "Ġfifty": 3056,
      "Ġvillage": 3057,
      "JW": 3058,
      "With": 3059,
      "ĠLea": 3060,
      "Ġmoving": 3061,
      "Ġsad": 3062,
      "Ġcake": 3063,
      "Ġlim": 3064,
      "Ġwash": 3065,
      "Ġcompan": 3066,
      "NA": 3067,
      "cket": 3068,
      "ĠAND": 3069,
      "Ġbright": 3070,
      "ĠPresident": 3071,
      "Ġdescri": 3072,
      "Ġbread": 3073,
      "Ġsuddenly": 3074,
      "Wait": 3075,
      "bing": 3076,
      "ĠThese": 3077,
      "ograp": 3078,
      "ancy": 3079,
      "nel": 3080,
      "Ġappeared": 3081,
      "Ġhospital": 3082,
      "ĠEm": 3083,
      "ization": 3084,
      "Ġhungry": 3085,
      "ya": 3086,
      "Ġanybody": 3087,
      "Ġhistory": 3088,
      "ET": 3089,
      "Ġhig": 3090,
      "Ġvide": 3091,
      "pecially": 3092,
      "Ġincluding": 3093,
      "aff": 3094,
      "how": 3095,
      "Ġlab": 3096,
      "acing": 3097,
      "Ġwatching": 3098,
      "Ġalb": 3099,
      "Ġspoke": 3100,
      "Ġglass": 3101,
      "Ġelect": 3102,
      "Ġcrazy": 3103,
      "ils": 3104,
      "like": 3105,
      "Ġdev": 3106,
      "Ġcarried": 3107,
      "UNK": 3108,
      "wh": 3109,
      "resh": 3110,
      "Ġauthor": 3111,
      "Ġmunicip": 3112,
      "Ġengine": 3113,
      "Ġsummer": 3114,
      "AY": 3115,
      "ĠAg": 3116,
      "elen": 3117,
      "Ġprison": 3118,
      "ĠRoy": 3119,
      "fl": 3120,
      "Ġallowed": 3121,
      "ĠEll": 3122,
      "Ġhasn": 3123,
      "Ġdesign": 3124,
      "Ġtruth": 3125,
      "ording": 3126,
      "Ġbusy": 3127,
      "Ġfurther": 3128,
      "Ġloc": 3129,
      "Ġcompet": 3130,
      "oman": 3131,
      "nect": 3132,
      "ida": 3133,
      "iforn": 3134,
      "ĠINV": 3135,
      "Ġimag": 3136,
      "Tell": 3137,
      "Ġcab": 3138,
      "roy": 3139,
      "Ġtast": 3140,
      "ĠIT": 3141,
      "ĠCent": 3142,
      "Ġanymore": 3143,
      "Ġclever": 3144,
      "Ġlaughs": 3145,
      "_,": 3146,
      "Ġbased": 3147,
      "Ġincre": 3148,
      "Ġnorm": 3149,
      "Ġvol": 3150,
      "orts": 3151,
      "Ġsmell": 3152,
      "ĠChristmas": 3153,
      "Take": 3154,
      "Ġ$": 3155,
      "Ġbank": 3156,
      "ĠAmy": 3157,
      "ĠDor": 3158,
      "Ġuhoh": 3159,
      "Ġtype": 3160,
      "estern": 3161,
      "ales": 3162,
      "Ġslight": 3163,
      "Ġnecess": 3164,
      "isten": 3165,
      "Ġspot": 3166,
      "asket": 3167,
      "Ġgen": 3168,
      "ĠSm": 3169,
      "ĠItal": 3170,
      "Ġhorses": 3171,
      "ifornia": 3172,
      "Ġbud": 3173,
      "Ġself": 3174,
      "Ġspir": 3175,
      "Ġgall": 3176,
      "Ġbabies": 3177,
      "Ġwand": 3178,
      "Ġoo": 3179,
      "Ġhealth": 3180,
      "Ġneighb": 3181,
      "nie": 3182,
      "Ġyep": 3183,
      "Ġthanks": 3184,
      "ris": 3185,
      "Ġgarden": 3186,
      "chn": 3187,
      "ĠPer": 3188,
      "ĠAmerica": 3189,
      "Ġcapital": 3190,
      "Ġbreath": 3191,
      "Ġexclaimed": 3192,
      "vol": 3193,
      "ĠPeter": 3194,
      "ourn": 3195,
      "ission": 3196,
      "Ġwriting": 3197,
      "Ġadded": 3198,
      "Ġtrees": 3199,
      "ĠRuss": 3200,
      "Ġaccident": 3201,
      "Ġinvol": 3202,
      "Ġitself": 3203,
      "pes": 3204,
      "Ġgas": 3205,
      "Ġnames": 3206,
      "Ġlock": 3207,
      "ilar": 3208,
      "Ġsouth": 3209,
      "ĠJames": 3210,
      "Ġbra": 3211,
      "ĠCalifornia": 3212,
      "rel": 3213,
      "Ġattention": 3214,
      "Ġcorner": 3215,
      "Ch": 3216,
      "vin": 3217,
      "Ġwet": 3218,
      "Ġdance": 3219,
      "uty": 3220,
      "ĠGreat": 3221,
      "ĠAustral": 3222,
      "Ġsell": 3223,
      "Ġshouldn": 3224,
      "Ġwalking": 3225,
      "Ġver": 3226,
      "Ġpink": 3227,
      "ashing": 3228,
      "Ġdistance": 3229,
      "Stop": 3230,
      "off": 3231,
      "ining": 3232,
      "Ġcompl": 3233,
      "ĠAlexander": 3234,
      "Ġtail": 3235,
      "iced": 3236,
      "Ġparents": 3237,
      "lect": 3238,
      "Ġplayer": 3239,
      "Ġholding": 3240,
      "Ġpuzz": 3241,
      "Ġbeginning": 3242,
      "\")": 3243,
      "Ġpause": 3244,
      "unny": 3245,
      "Ġvict": 3246,
      "Ġ\"âĢĵ": 3247,
      "ĠBRO": 3248,
      "Ġliked": 3249,
      "ribut": 3250,
      "cious": 3251,
      "ĠSu": 3252,
      "astic": 3253,
      "Ġhall": 3254,
      "aper": 3255,
      "Ġdropped": 3256,
      "----------------": 3257,
      "mo": 3258,
      "Ġfeed": 3259,
      "Ġblocks": 3260,
      "Ġhun": 3261,
      "Ġcapt": 3262,
      "Ġcollect": 3263,
      "Ġspace": 3264,
      "Ġtrack": 3265,
      "Ġsubject": 3266,
      "Ġcontinued": 3267,
      "ĠSec": 3268,
      "ĠUncle": 3269,
      "Ġshowed": 3270,
      "Ġcream": 3271,
      "Ġattempt": 3272,
      "Ġeduc": 3273,
      "ien": 3274,
      "Ġhole": 3275,
      "Ġnatur": 3276,
      "Ġquestions": 3277,
      "IR": 3278,
      "ipe": 3279,
      "Ġrespect": 3280,
      "Ġchicken": 3281,
      "por": 3282,
      "Ġfut": 3283,
      "Ġnone": 3284,
      "Ġbeat": 3285,
      "ĠDad": 3286,
      "elve": 3287,
      "ply": 3288,
      "Ġtor": 3289,
      "Ġgar": 3290,
      "Ġsex": 3291,
      "Ġsituation": 3292,
      "board": 3293,
      "THE": 3294,
      "Ġdanc": 3295,
      "ases": 3296,
      "Ġhide": 3297,
      "Ġ(\"": 3298,
      "Ġrepresent": 3299,
      "iol": 3300,
      "ĠHall": 3301,
      "ĠNot": 3302,
      "Ġloved": 3303,
      "Ġfucking": 3304,
      "af": 3305,
      "ference": 3306,
      "ĠHouse": 3307,
      "ume": 3308,
      "arty": 3309,
      "Ġchief": 3310,
      "Ġchurch": 3311,
      "viously": 3312,
      "Ġhous": 3313,
      "Ġearth": 3314,
      "ades": 3315,
      "Ġcheese": 3316,
      "dd": 3317,
      "itive": 3318,
      "Ġdelight": 3319,
      "Ġcontrol": 3320,
      "ĠHist": 3321,
      "ument": 3322,
      "Ġprin": 3323,
      "UT": 3324,
      "ĠEx": 3325,
      "Ġslowly": 3326,
      "ĠMark": 3327,
      "Ġweren": 3328,
      "aug": 3329,
      "ensus": 3330,
      "ĠMon": 3331,
      "ĠMary": 3332,
      "ĠRiver": 3333,
      "Ġloud": 3334,
      "atch": 3335,
      "Ġhast": 3336,
      "ength": 3337,
      "Ġbottle": 3338,
      "aud": 3339,
      "Ġdrop": 3340,
      "CK": 3341,
      "wood": 3342,
      "iger": 3343,
      "Ġcommand": 3344,
      "Like": 3345,
      "Ġlose": 3346,
      "cries": 3347,
      "ires": 3348,
      "Ġteeth": 3349,
      "Ġteddy": 3350,
      "Ġlaughing": 3351,
      "itz": 3352,
      "Ġport": 3353,
      "aps": 3354,
      "Ġproblems": 3355,
      "illa": 3356,
      "cell": 3357,
      "Ġrole": 3358,
      "Ġinteresting": 3359,
      "Ġmach": 3360,
      "Ġrid": 3361,
      "Ġrul": 3362,
      "sey": 3363,
      "ĠSam": 3364,
      "Ġseeing": 3365,
      "Ġflowers": 3366,
      "Ġcharge": 3367,
      "Ġfingers": 3368,
      "iant": 3369,
      "ky": 3370,
      "Ġspl": 3371,
      "aining": 3372,
      "Me": 3373,
      "cuse": 3374,
      "Ġma": 3375,
      "Ġcrow": 3376,
      "Ġdollars": 3377,
      "hood": 3378,
      "Ġeff": 3379,
      "aker": 3380,
      "olutely": 3381,
      "isted": 3382,
      "mm": 3383,
      "omes": 3384,
      "Ġye": 3385,
      "Ġshare": 3386,
      "Ġcommune": 3387,
      "ounced": 3388,
      "Ġreading": 3389,
      "Ġfuture": 3390,
      "Ġnor": 3391,
      "omer": 3392,
      "Ġactiv": 3393,
      "ĠFrom": 3394,
      "Ġcircle": 3395,
      "Ġpaid": 3396,
      "Ġforce": 3397,
      "Ġanx": 3398,
      "now": 3399,
      "...?\"": 3400,
      "Ġentire": 3401,
      "Ġvideo": 3402,
      "esus": 3403,
      "Ġstarts": 3404,
      "Ġeggs": 3405,
      "Ġbene": 3406,
      "Ġregard": 3407,
      "iot": 3408,
      "yond": 3409,
      "Ġ]": 3410,
      "inite": 3411,
      "Ġcomb": 3412,
      "Ġcars": 3413,
      "rug": 3414,
      "clock": 3415,
      "Ġpriv": 3416,
      "house": 3417,
      "Ġjud": 3418,
      "Ġsinging": 3419,
      "Ġinformation": 3420,
      "Listen": 3421,
      "Ġmum": 3422,
      "Ġsna": 3423,
      "lymp": 3424,
      "Ġwide": 3425,
      "ran": 3426,
      "het": 3427,
      "ili": 3428,
      "riage": 3429,
      "play": 3430,
      "Ġmovies": 3431,
      "Ġhate": 3432,
      ".--": 3433,
      "Ġgives": 3434,
      "Ġshit": 3435,
      "Ġhost": 3436,
      "ĠLuc": 3437,
      "Ġneeded": 3438,
      "cture": 3439,
      "ĠLou": 3440,
      "Ġolder": 3441,
      "Ġwalked": 3442,
      "iers": 3443,
      "Ġtall": 3444,
      "Ġnobody": 3445,
      "ĠDada": 3446,
      "Ġbridge": 3447,
      "Ġserious": 3448,
      "hold": 3449,
      "west": 3450,
      "Ġlying": 3451,
      "Ġshows": 3452,
      "ĠIsland": 3453,
      "ELL": 3454,
      "atives": 3455,
      "Ġwonderful": 3456,
      "Ġextra": 3457,
      "Ġgoin": 3458,
      "rene": 3459,
      "Ġdirection": 3460,
      "Ġ...": 3461,
      "Ġaut": 3462,
      "ination": 3463,
      "Ġsmile": 3464,
      "rang": 3465,
      "ston": 3466,
      "aret": 3467,
      "Ġscar": 3468,
      "Will": 3469,
      "str": 3470,
      "Ġuncle": 3471,
      "Ġconcern": 3472,
      "ads": 3473,
      "pered": 3474,
      "Ġsepar": 3475,
      "Ġterm": 3476,
      "Ġpictures": 3477,
      "Give": 3478,
      "Sure": 3479,
      "Ġcard": 3480,
      "Ġwel": 3481,
      "Ġrab": 3482,
      "ĠSund": 3483,
      "ĠCo": 3484,
      "ounded": 3485,
      "ploy": 3486,
      "Ġcreated": 3487,
      "gon": 3488,
      "Ġvers": 3489,
      "Ġmem": 3490,
      "ĠFred": 3491,
      "ĠOlymp": 3492,
      "Ġespecially": 3493,
      "lu": 3494,
      "ala": 3495,
      "Ġproject": 3496,
      "Ġplays": 3497,
      "ption": 3498,
      "Ġhandle": 3499,
      "Ġelephan": 3500,
      "Ġ,": 3501,
      "Ġtowel": 3502,
      "Ġlength": 3503,
      "icro": 3504,
      "ggie": 3505,
      "EC": 3506,
      "Ġmass": 3507,
      "Ġpicked": 3508,
      "Ġoccas": 3509,
      "Ġalbum": 3510,
      "ĠMart": 3511,
      "Ġtwelve": 3512,
      "Ġep": 3513,
      "ĠCup": 3514,
      "ĠIndia": 3515,
      "isy": 3516,
      "ĠFAT": 3517,
      "Ġspell": 3518,
      "Ġdrawing": 3519,
      "Ġpurple": 3520,
      "kin": 3521,
      "val": 3522,
      "ĠAir": 3523,
      "ession": 3524,
      "Ġsimilar": 3525,
      "Ġgrass": 3526,
      "medi": 3527,
      "ography": 3528,
      "MY": 3529,
      "Ġconvers": 3530,
      "Ġbigger": 3531,
      "ĠPeggy": 3532,
      "bout": 3533,
      "ites": 3534,
      "ĠIts": 3535,
      "Ġears": 3536,
      "Ġearl": 3537,
      "she": 3538,
      "ico": 3539,
      "....": 3540,
      "Ġpers": 3541,
      "ĠMex": 3542,
      "Ġcomput": 3543,
      "Ġdue": 3544,
      "rian": 3545,
      "raft": 3546,
      "ĠState": 3547,
      "Ġpopular": 3548,
      "ees": 3549,
      "ius": 3550,
      "ĠSchool": 3551,
      "Ġcrack": 3552,
      "ĠHowever": 3553,
      "Ġet": 3554,
      "ĠON": 3555,
      "Ġpicks": 3556,
      "face": 3557,
      "Ġwag": 3558,
      "Ġhy": 3559,
      "soci": 3560,
      "Ġspecies": 3561,
      "Ġnaught": 3562,
      "ashed": 3563,
      "Ġterrible": 3564,
      "uction": 3565,
      "Ġrepe": 3566,
      "ĠRob": 3567,
      "Ġparticular": 3568,
      "Ġamount": 3569,
      "Ġdirty": 3570,
      "atter": 3571,
      "irm": 3572,
      "ĠNe": 3573,
      "Ġtalked": 3574,
      "Ġaccom": 3575,
      "itary": 3576,
      "ĠHelen": 3577,
      "itions": 3578,
      "ĠGerva": 3579,
      "Ġinvest": 3580,
      "Ġcentury": 3581,
      ".]": 3582,
      "Ġmix": 3583,
      "ĠMus": 3584,
      "Ġpocket": 3585,
      "Ġexcuse": 3586,
      "Ġdiscuss": 3587,
      "erve": 3588,
      "elly": 3589,
      "ĠLord": 3590,
      "Ġparts": 3591,
      "Ġsurprise": 3592,
      "Ġbasket": 3593,
      "Ġviol": 3594,
      "Ġactor": 3595,
      "Ġturning": 3596,
      "Ġdate": 3597,
      "Ġstars": 3598,
      "Does": 3599,
      "cher": 3600,
      "uge": 3601,
      "cks": 3602,
      "ĠJapanese": 3603,
      "ĠLeague": 3604,
      "ĠJust": 3605,
      "Ġinterrupt": 3606,
      "Ġ\"#": 3607,
      "Ġsle": 3608,
      "Ġboo": 3609,
      "ĠTex": 3610,
      "Ġspent": 3611,
      "ĠAnne": 3612,
      "ĠGervaise": 3613,
      "chan": 3614,
      "dom": 3615,
      "Ġpounds": 3616,
      "Ġprep": 3617,
      "uel": 3618,
      "za": 3619,
      "Ġris": 3620,
      "Ġspoon": 3621,
      "Ġarmy": 3622,
      "ka": 3623,
      "inary": 3624,
      "Ġclosed": 3625,
      "Ġobs": 3626,
      "ipped": 3627,
      "Ġbackground": 3628,
      "Ġblank": 3629,
      "Ġkey": 3630,
      "llust": 3631,
      "Ġmanner": 3632,
      "ĠSer": 3633,
      "Ġworse": 3634,
      "Ġasking": 3635,
      "Ġdifference": 3636,
      "Ġcaused": 3637,
      "Ġsky": 3638,
      "Ġsquare": 3639,
      "ĠQue": 3640,
      "lin": 3641,
      "pose": 3642,
      "Ġcouncil": 3643,
      "asc": 3644,
      "ural": 3645,
      "ival": 3646,
      "Nothing": 3647,
      "ato": 3648,
      "antly": 3649,
      "Ġbelow": 3650,
      "Ġdirected": 3651,
      "ĠBro": 3652,
      "uckles": 3653,
      "Which": 3654,
      "isf": 3655,
      "Ġcourt": 3656,
      "Ġsettle": 3657,
      "aturday": 3658,
      "ALL": 3659,
      "Would": 3660,
      "aven": 3661,
      "Ġfresh": 3662,
      "amund": 3663,
      "ppy": 3664,
      "Ġalive": 3665,
      "set": 3666,
      "inc": 3667,
      "Ġhol": 3668,
      "raph": 3669,
      "Ġpromise": 3670,
      "ĠRepubl": 3671,
      "ament": 3672,
      "ĠCharlie": 3673,
      "look": 3674,
      "Ġden": 3675,
      "Ġfinally": 3676,
      "Ġmunicipality": 3677,
      "ĠHistory": 3678,
      "Ġtit": 3679,
      "ĠST": 3680,
      "ĠBill": 3681,
      "ugg": 3682,
      "Ġhiding": 3683,
      "ably": 3684,
      "ously": 3685,
      "ĠRosamund": 3686,
      "Ġlion": 3687,
      ".\"\"": 3688,
      "Ġrespons": 3689,
      "Ġupstairs": 3690,
      "osaur": 3691,
      "Ġcrowd": 3692,
      "point": 3693,
      "Ġfle": 3694,
      "ĠGl": 3695,
      "Ġconnect": 3696,
      "bye": 3697,
      "eneral": 3698,
      "Ġasleep": 3699,
      "Ġraised": 3700,
      "Ġninet": 3701,
      "arr": 3702,
      "ĠMat": 3703,
      "Ġhelped": 3704,
      "Ġrefer": 3705,
      "bes": 3706,
      "Ġbeyond": 3707,
      "roat": 3708,
      "Ġstage": 3709,
      "Ġstren": 3710,
      "ĠAc": 3711,
      "ems": 3712,
      "ĠUS": 3713,
      "Ġhurry": 3714,
      "Ġpolicy": 3715,
      "vious": 3716,
      "ruction": 3717,
      "upid": 3718,
      "Ġoppos": 3719,
      "Ġjoined": 3720,
      "Ġwha": 3721,
      "Ġfool": 3722,
      "ushing": 3723,
      "ĠSar": 3724,
      "Ġaff": 3725,
      "Ġapple": 3726,
      "mit": 3727,
      "oming": 3728,
      "Ġbrief": 3729,
      "ĠRober": 3730,
      "Ġmanage": 3731,
      "Ġcoat": 3732,
      "pend": 3733,
      "conom": 3734,
      "Ġdeter": 3735,
      "ighs": 3736,
      "IGH": 3737,
      "ĠMad": 3738,
      "ĠJones": 3739,
      "._": 3740,
      "ij": 3741,
      "wise": 3742,
      "ville": 3743,
      "yer": 3744,
      "asp": 3745,
      "ĠDem": 3746,
      "Ġspring": 3747,
      "ĠHarry": 3748,
      "Ġnaughty": 3749,
      "Un": 3750,
      "Ġcovered": 3751,
      "pping": 3752,
      "field": 3753,
      "lla": 3754,
      "ĠGood": 3755,
      "Ġimmedi": 3756,
      "Ġcommunity": 3757,
      "ĠSunday": 3758,
      "zen": 3759,
      "Ġwhoops": 3760,
      "Ġtechn": 3761,
      "Ġmagnet": 3762,
      "pers": 3763,
      "Ġpenc": 3764,
      "olf": 3765,
      "Ġphot": 3766,
      "Ġdestroy": 3767,
      "inct": 3768,
      "outhern": 3769,
      "Ġpossib": 3770,
      "ki": 3771,
      "aded": 3772,
      "Ġcrit": 3773,
      "azing": 3774,
      "rey": 3775,
      "hal": 3776,
      "Ġfre": 3777,
      "Ġpal": 3778,
      "Ġthreat": 3779,
      "ĠDist": 3780,
      "ett": 3781,
      "Ġprocess": 3782,
      "Ġintrod": 3783,
      "laughing": 3784,
      "Ġinclude": 3785,
      "Ġlikely": 3786,
      "ĠTHAT": 3787,
      "ĠTur": 3788,
      "Ġagree": 3789,
      "Ġarrest": 3790,
      "ivil": 3791,
      "Ġnumbers": 3792,
      "Ġgrew": 3793,
      "Ġgate": 3794,
      "Ġrese": 3795,
      "oph": 3796,
      "Ġscared": 3797,
      "hire": 3798,
      "Ġspeed": 3799,
      "kn": 3800,
      "worth": 3801,
      "ĠColl": 3802,
      "ittee": 3803,
      "ĠKe": 3804,
      "ĠTexas": 3805,
      "Ġskin": 3806,
      "Excuse": 3807,
      "Ġstreng": 3808,
      "Ġdrew": 3809,
      "ids": 3810,
      "Ġrace": 3811,
      "ĠCarl": 3812,
      "oved": 3813,
      "ĠGovern": 3814,
      "vocal": 3815,
      "Ġfright": 3816,
      "Ġthinks": 3817,
      "Ġdriving": 3818,
      "ĠHen": 3819,
      "Ġsheep": 3820,
      "orthern": 3821,
      "oughs": 3822,
      "brother": 3823,
      "ners": 3824,
      "Ġcensus": 3825,
      "ago": 3826,
      "Ġfamous": 3827,
      "Ġpleasure": 3828,
      "ĠWind": 3829,
      "yle": 3830,
      "Ġwest": 3831,
      "Ġfem": 3832,
      "iment": 3833,
      "ĠMarie": 3834,
      "Ġsandw": 3835,
      "Ġho": 3836,
      "lden": 3837,
      "alt": 3838,
      "chie": 3839,
      "Ġspeaking": 3840,
      "ĠSan": 3841,
      "Ġmeat": 3842,
      "Ġneedta": 3843,
      "ashion": 3844,
      "ĠQu": 3845,
      "light": 3846,
      "Ġcru": 3847,
      "Ġlines": 3848,
      "ĠIndians": 3849,
      "Ġbirds": 3850,
      "ST": 3851,
      "itor": 3852,
      "Ġnur": 3853,
      "othy": 3854,
      "Ġrap": 3855,
      "ĠSaturday": 3856,
      "ĠPark": 3857,
      "Ġtotal": 3858,
      "VER": 3859,
      "Ġsens": 3860,
      "Ġairport": 3861,
      "Ġnatural": 3862,
      "Ġwa": 3863,
      "Ġhero": 3864,
      "Ġperform": 3865,
      "Ġcaptain": 3866,
      "Ġmissing": 3867,
      "!'": 3868,
      "Ke": 3869,
      "Mhm": 3870,
      "Per": 3871,
      "Ġwake": 3872,
      "ĠIrene": 3873,
      "Ġweap": 3874,
      "Ġelection": 3875,
      "Ġsleeping": 3876,
      "Ġbattle": 3877,
      "ingly": 3878,
      "Ġeast": 3879,
      "Ġswing": 3880,
      "Ġbroad": 3881,
      "Ġsatisf": 3882,
      "Ġur": 3883,
      "Ġrough": 3884,
      "ĠFather": 3885,
      "Ġplane": 3886,
      "Ġflat": 3887,
      "ĠEast": 3888,
      "ivid": 3889,
      "Ġcalling": 3890,
      "erved": 3891,
      "Ġtries": 3892,
      "cer": 3893,
      "under": 3894,
      "rect": 3895,
      "Ġinn": 3896,
      "ĠNor": 3897,
      "FRI": 3898,
      "HH": 3899,
      "anny": 3900,
      "Ġthrew": 3901,
      "Ġstream": 3902,
      "cience": 3903,
      "Ġsimply": 3904,
      "Ġprovince": 3905,
      "Ġvarious": 3906,
      "line": 3907,
      "reme": 3908,
      "ademy": 3909,
      "ĠBur": 3910,
      "Ġgrad": 3911,
      "LA": 3912,
      "Ġ&": 3913,
      "Ġoops": 3914,
      "vey": 3915,
      "Ġund": 3916,
      "Ġattend": 3917,
      "Ġident": 3918,
      "Ġbeha": 3919,
      "Ġbell": 3920,
      "ĠBat": 3921,
      "ĠGra": 3922,
      "Ġsett": 3923,
      "Ġsize": 3924,
      "Ġarrived": 3925,
      "sp": 3926,
      "ests": 3927,
      "ĠChristian": 3928,
      "ables": 3929,
      "Ġways": 3930,
      "Ġterms": 3931,
      "Ġsteps": 3932,
      "initely": 3933,
      "Very": 3934,
      "Ġfol": 3935,
      "Ġstories": 3936,
      "ĠSch": 3937,
      "antic": 3938,
      "ĠLady": 3939,
      "Ġanywhere": 3940,
      "ĠAnge": 3941,
      "Ġjoin": 3942,
      "Was": 3943,
      "Ġstupid": 3944,
      "ongress": 3945,
      "ĠSteve": 3946,
      "Somet": 3947,
      "ini": 3948,
      "ences": 3949,
      "Ġemb": 3950,
      "olm": 3951,
      "Ġgoodness": 3952,
      "Ġofficer": 3953,
      "Ġneg": 3954,
      "ocol": 3955,
      "Ġcust": 3956,
      "uses": 3957,
      "aching": 3958,
      "Ġforth": 3959,
      "Ġformed": 3960,
      "ĠMac": 3961,
      "Ġserved": 3962,
      "ĠChampions": 3963,
      "Ġbuck": 3964,
      "atic": 3965,
      "Ġended": 3966,
      "lt": 3967,
      "asure": 3968,
      "asons": 3969,
      "Ġwheel": 3970,
      "Ġmostly": 3971,
      "Ġlargest": 3972,
      "sy": 3973,
      "Ġangry": 3974,
      "MU": 3975,
      "ially": 3976,
      "rain": 3977,
      "sn": 3978,
      "Ġtou": 3979,
      "ĠBE": 3980,
      "ĠParty": 3981,
      "ĠDuring": 3982,
      "berry": 3983,
      "Ġoriginal": 3984,
      "kiss": 3985,
      "Ġtower": 3986,
      "Ġspread": 3987,
      "Ġpeace": 3988,
      "Ġwelcome": 3989,
      "rer": 3990,
      "itude": 3991,
      "ann": 3992,
      "Ġrich": 3993,
      "ularly": 3994,
      "Ġplaced": 3995,
      "ĠLa": 3996,
      "Ġguard": 3997,
      "Ġstarting": 3998,
      "Ġhappening": 3999,
      "Ġdressed": 4000,
      "Ġforty": 4001,
      "stit": 4002,
      "Ġnotice": 4003,
      "ĠWin": 4004,
      "Ġentered": 4005,
      "Ġstudy": 4006,
      "Ġsurprised": 4007,
      "Ġelephant": 4008,
      "CE": 4009,
      "Ġrose": 4010,
      "ĠMany": 4011,
      "Ġsuff": 4012,
      "Ġrelations": 4013,
      "Ġmissed": 4014,
      "IF": 4015,
      "Ġtax": 4016,
      "Ġbound": 4017,
      "Ġlaid": 4018,
      "epend": 4019,
      "Ġconside": 4020,
      "Ġconsidered": 4021,
      "Ġonto": 4022,
      "ĠCor": 4023,
      "Ġnineteen": 4024,
      "Ġbite": 4025,
      "ĠRed": 4026,
      "ansas": 4027,
      "Ġhardly": 4028,
      "Ġdinosaur": 4029,
      "Ġmarket": 4030,
      "ĠBradford": 4031,
      "cast": 4032,
      "hin": 4033,
      "ĠPre": 4034,
      "Ġcollege": 4035,
      "KAT": 4036,
      "Ġpray": 4037,
      "order": 4038,
      "Ġninety": 4039,
      "JO": 4040,
      "Ġmer": 4041,
      "Ġpet": 4042,
      "ached": 4043,
      "anch": 4044,
      "ĠHigh": 4045,
      "Ġshape": 4046,
      "bre": 4047,
      "ĠFOR": 4048,
      "ĠLara": 4049,
      "Ġsharp": 4050,
      "Ġmachine": 4051,
      "Qu": 4052,
      "Ġsevent": 4053,
      "Ġplate": 4054,
      "ails": 4055,
      "ita": 4056,
      "roll": 4057,
      "Ġenv": 4058,
      "anced": 4059,
      "Ġloves": 4060,
      "Even": 4061,
      "icious": 4062,
      "Ġsupper": 4063,
      "Ġsimple": 4064,
      "'?\"": 4065,
      "ĠRo": 4066,
      "Ġfinal": 4067,
      "ENT": 4068,
      "Ġinvolved": 4069,
      "Ġtone": 4070,
      "oring": 4071,
      "Ġlaug": 4072,
      "Ġjoy": 4073,
      "ĠLo": 4074,
      "Ġtrad": 4075,
      "Ġclown": 4076,
      "ĠStreet": 4077,
      "Ġfilm": 4078,
      "Ġbomb": 4079,
      "edy": 4080,
      "ĠInternational": 4081,
      "Ġunless": 4082,
      "Ġtight": 4083,
      "Ġyouth": 4084,
      "Ġtrick": 4085,
      "Ġemploy": 4086,
      "Got": 4087,
      "Ġcult": 4088,
      "ĠChe": 4089,
      "craft": 4090,
      "Ġcabin": 4091,
      "Ġearlier": 4092,
      "Ġlaughed": 4093,
      "ĠCouncil": 4094,
      "Ġfighting": 4095,
      "Ġladies": 4096,
      "AK": 4097,
      "ergy": 4098,
      "Ġradio": 4099,
      "gu": 4100,
      "lected": 4101,
      "ĠRam": 4102,
      "Ġaged": 4103,
      "Ġchoo": 4104,
      "Ġaction": 4105,
      "Gr": 4106,
      "Ġbunny": 4107,
      "Ġlap": 4108,
      "Ġnet": 4109,
      "oma": 4110,
      "ĠAlbert": 4111,
      "Ġcoach": 4112,
      "ION": 4113,
      "ux": 4114,
      "ĠII": 4115,
      "anda": 4116,
      "ively": 4117,
      "Ġtwice": 4118,
      "Ġpleased": 4119,
      "LY": 4120,
      "ĠAMY": 4121,
      "ĠBer": 4122,
      "Ġknights": 4123,
      "ension": 4124,
      "Ġoccur": 4125,
      "Ġcomputer": 4126,
      "Could": 4127,
      "ĠIS": 4128,
      "ĠAlf": 4129,
      "ours": 4130,
      "Ġuhuh": 4131,
      "Ġcompletely": 4132,
      "Ġmummy": 4133,
      "Ġham": 4134,
      "ĠChic": 4135,
      "Ġpencil": 4136,
      "din": 4137,
      "arm": 4138,
      "izes": 4139,
      "ique": 4140,
      "sil": 4141,
      "Ġtherefore": 4142,
      "Ġopport": 4143,
      "Ġdangerous": 4144,
      "ĠRobert": 4145,
      "of": 4146,
      "Ġreact": 4147,
      "outs": 4148,
      "Ġareas": 4149,
      "ĠFort": 4150,
      "Ġannounced": 4151,
      "Ġempty": 4152,
      "OP": 4153,
      "don": 4154,
      "orough": 4155,
      "ĠME": 4156,
      "ousin": 4157,
      "Ġbless": 4158,
      "Ġfallen": 4159,
      "Ġconversation": 4160,
      "ĠSy": 4161,
      "Ġsearch": 4162,
      "Ġphys": 4163,
      "Ġfalling": 4164,
      "OME": 4165,
      "Ġhigher": 4166,
      "oken": 4167,
      "CAR": 4168,
      "ba": 4169,
      "Ġpir": 4170,
      "Ġweather": 4171,
      "Ġhouses": 4172,
      "His": 4173,
      "father": 4174,
      "Ġta": 4175,
      "Ġthroat": 4176,
      "usion": 4177,
      "ĠSant": 4178,
      "ĠPort": 4179,
      "ĠLittle": 4180,
      "ĠGermany": 4181,
      "do": 4182,
      "anish": 4183,
      "Ġpan": 4184,
      "Ġshirt": 4185,
      "Ġactress": 4186,
      "Ġeasily": 4187,
      "Ġpuzzle": 4188,
      "hered": 4189,
      "Ġdere": 4190,
      "iance": 4191,
      "Ġpolitical": 4192,
      "Ġstrugg": 4193,
      "ĠDistrict": 4194,
      "Ġcell": 4195,
      "Ġduty": 4196,
      "Ġmoves": 4197,
      "ointed": 4198,
      "Ġmistake": 4199,
      "Illust": 4200,
      "uke": 4201,
      "ĠMatt": 4202,
      "ĠJo": 4203,
      "Ġclock": 4204,
      "Ġrob": 4205,
      "ples": 4206,
      "Ġscene": 4207,
      "Ġeleven": 4208,
      "Ġfifteen": 4209,
      "Ġscream": 4210,
      "Ġmedic": 4211,
      "Ġescape": 4212,
      "Ġquarter": 4213,
      "Ġ\"!\"": 4214,
      "Ġwit": 4215,
      "Ġcrew": 4216,
      "Ġsocial": 4217,
      "rib": 4218,
      "ĠGeneral": 4219,
      "Ġgrou": 4220,
      "Ġwinter": 4221,
      "Ġdeclared": 4222,
      "arrow": 4223,
      "Ġshoe": 4224,
      "Ġchap": 4225,
      "Ġfilled": 4226,
      "ĠHenry": 4227,
      "Ġ?\"": 4228,
      "Ġpath": 4229,
      "ĠMother": 4230,
      "ĠAward": 4231,
      "ĠBra": 4232,
      "Ġexplain": 4233,
      "Ġlucky": 4234,
      "Cl": 4235,
      "lebr": 4236,
      "ether": 4237,
      "Ġnote": 4238,
      "ĠJenn": 4239,
      "atherine": 4240,
      "gged": 4241,
      "Ġcolors": 4242,
      "Ġhonest": 4243,
      "Ġmoon": 4244,
      "ns": 4245,
      "Ġide": 4246,
      "Ġlearned": 4247,
      "Ġble": 4248,
      "Ġthick": 4249,
      "Ġrate": 4250,
      "Ġallow": 4251,
      "Ġ()": 4252,
      "ockey": 4253,
      "ĠUnion": 4254,
      "Ġexcited": 4255,
      "Ġtemper": 4256,
      "IM": 4257,
      "Ġeconom": 4258,
      "Ġroof": 4259,
      "ĠOk": 4260,
      "Ġenc": 4261,
      "ungle": 4262,
      "Ġinflu": 4263,
      "Ġnecessary": 4264,
      "can": 4265,
      "reg": 4266,
      "Ġmir": 4267,
      "Ġgir": 4268,
      "ĠBo": 4269,
      "ĠRight": 4270,
      "ocrat": 4271,
      "eg": 4272,
      "inal": 4273,
      "Ġinj": 4274,
      "Ġrow": 4275,
      "Ġsuit": 4276,
      "ensive": 4277,
      "Ġfellows": 4278,
      "Ġnature": 4279,
      "Ġflying": 4280,
      "burg": 4281,
      "Ġmentioned": 4282,
      "Illustration": 4283,
      "fter": 4284,
      "Ġpun": 4285,
      "Ġate": 4286,
      "ify": 4287,
      "Ġpersonal": 4288,
      "ĠChris": 4289,
      "Ġmerc": 4290,
      "Ġdrug": 4291,
      "Ġappl": 4292,
      "ĠTheir": 4293,
      "ĠJul": 4294,
      "elest": 4295,
      "Ġsugar": 4296,
      "Ġchem": 4297,
      "Ġwalks": 4298,
      "Ġpulled": 4299,
      "Ġpublished": 4300,
      "Ġestab": 4301,
      "SC": 4302,
      "Ġtong": 4303,
      "Ġtiny": 4304,
      "Ġlem": 4305,
      "Ġnon": 4306,
      "Ġnea": 4307,
      "Ġaddress": 4308,
      "Ġepis": 4309,
      "Our": 4310,
      "Ġap": 4311,
      "aries": 4312,
      "Ġplant": 4313,
      "eman": 4314,
      "Ġsinger": 4315,
      "ĠLouis": 4316,
      "Ġdoggie": 4317,
      "Ġlips": 4318,
      "Ġdeg": 4319,
      "igs": 4320,
      "Ġmilitary": 4321,
      "ĠBeck": 4322,
      "Ġmamma": 4323,
      "Ġstrength": 4324,
      "pos": 4325,
      "Ġbill": 4326,
      "Ġeager": 4327,
      "ĠLaw": 4328,
      "Ġrelig": 4329,
      "Ġawful": 4330,
      "Ġpractice": 4331,
      "Ġcloud": 4332,
      "Ġrabbit": 4333,
      ".,": 4334,
      "Ġ)": 4335,
      "ĠCreek": 4336,
      "Ġoffer": 4337,
      "Ġenemy": 4338,
      "Ġimm": 4339,
      "Ġexpected": 4340,
      "Ġbeside": 4341,
      "Ġspirit": 4342,
      "Ġiron": 4343,
      "ĠLem": 4344,
      "ĠOf": 4345,
      "ĠChair": 4346,
      "Ġsurface": 4347,
      "pa": 4348,
      "Ġkitty": 4349,
      "Ġdesk": 4350,
      "Ġdevelopment": 4351,
      "Ġswimming": 4352,
      "imit": 4353,
      "ĠJesus": 4354,
      "Ġregular": 4355,
      "Ġdogs": 4356,
      "Ġdancing": 4357,
      "Two": 4358,
      "ja": 4359,
      "Ġvan": 4360,
      "Ġproud": 4361,
      "Ġpercent": 4362,
      "bell": 4363,
      "gl": 4364,
      "rist": 4365,
      "Ġoffe": 4366,
      "iel": 4367,
      "Ġgrab": 4368,
      "ucker": 4369,
      "Ġwatched": 4370,
      "ĠMinister": 4371,
      "Ġfaith": 4372,
      "Ġimmediately": 4373,
      "Ġdeb": 4374,
      "bered": 4375,
      "Ġstands": 4376,
      "Ġtiger": 4377,
      "ators": 4378,
      "urity": 4379,
      "Ġhadn": 4380,
      "Ġchocol": 4381,
      "Ġcheer": 4382,
      "ĠTV": 4383,
      "Ġstorm": 4384,
      "Ġwhoa": 4385,
      "Ġadvent": 4386,
      "Ġkeeping": 4387,
      "ĠPlay": 4388,
      "van": 4389,
      "Ġsoul": 4390,
      "Ġpin": 4391,
      "ĠTwo": 4392,
      "Ġbrush": 4393,
      "ĠCarol": 4394,
      "ĠDorothy": 4395,
      "Ar": 4396,
      "Cos": 4397,
      "Ġcalm": 4398,
      "Ġbutton": 4399,
      "Ġshore": 4400,
      "Ġshoulder": 4401,
      "ciety": 4402,
      "oid": 4403,
      "hem": 4404,
      "Ġbother": 4405,
      "ening": 4406,
      "Ġinqu": 4407,
      "oted": 4408,
      "ĠMost": 4409,
      "eless": 4410,
      "Ġrights": 4411,
      "Ġusual": 4412,
      "Ġacqu": 4413,
      "Ġlights": 4414,
      "arily": 4415,
      "ola": 4416,
      "ĠWhy": 4417,
      "Ġplain": 4418,
      "ĠDonald": 4419,
      "Ġoccasion": 4420,
      "icle": 4421,
      "idden": 4422,
      "Ġsail": 4423,
      "Ġappre": 4424,
      "Ġwoods": 4425,
      "iest": 4426,
      "Ġ\"...": 4427,
      "Ġcro": 4428,
      "oos": 4429,
      "Ġstone": 4430,
      "Ġnoticed": 4431,
      "Ġpurpose": 4432,
      "minist": 4433,
      "alcolm": 4434,
      "RUS": 4435,
      "omen": 4436,
      "Ġsaved": 4437,
      "ression": 4438,
      "obile": 4439,
      "Ġbedroom": 4440,
      "Ġmessage": 4441,
      "ĠAustralia": 4442,
      "nding": 4443,
      "ari": 4444,
      "lear": 4445,
      "ĠCat": 4446,
      "Ġearn": 4447,
      "Ġfault": 4448,
      "Ġaud": 4449,
      "Ġnap": 4450,
      "ĠKitty": 4451,
      "Ġpromised": 4452,
      "Ġoccup": 4453,
      "Ġdefinitely": 4454,
      "Ġgroups": 4455,
      "Ġ\".": 4456,
      "hips": 4457,
      "actor": 4458,
      "eech": 4459,
      "Ġtowns": 4460,
      "Ġimpro": 4461,
      "Ġmotion": 4462,
      "known": 4463,
      "Bye": 4464,
      "heart": 4465,
      "Ġmicro": 4466,
      "Ġfro": 4467,
      "utch": 4468,
      "ĠBel": 4469,
      "God": 4470,
      "ĠYes": 4471,
      "achel": 4472,
      "ĠGO": 4473,
      "Ġgrown": 4474,
      "Ġsmoke": 4475,
      "Ġfigures": 4476,
      "Ġprofessional": 4477,
      "Ġ\"\"": 4478,
      "cely": 4479,
      "Ġprim": 4480,
      "Ġremem": 4481,
      "Ġindust": 4482,
      "ĠBobby": 4483,
      "Ġabsolutely": 4484,
      "Ġmater": 4485,
      "Ġloss": 4486,
      "ĠSum": 4487,
      "Ġpeek": 4488,
      "Ġdirector": 4489,
      "eleste": 4490,
      "oom": 4491,
      "Ġmud": 4492,
      "Ġpool": 4493,
      "Ġnurs": 4494,
      "ĠMor": 4495,
      "Ġagreed": 4496,
      "Ġourselves": 4497,
      "Ġdeterm": 4498,
      "YOU": 4499,
      "ĠMalcolm": 4500,
      "ĠBu": 4501,
      "ĠBert": 4502,
      "Ġstraw": 4503,
      "Ġnormal": 4504,
      "Ġtap": 4505,
      "Ġstates": 4506,
      "ĠWH": 4507,
      "istic": 4508,
      "ĠEr": 4509,
      "Ġdownstairs": 4510,
      "Ġcontinues": 4511,
      "Ġcities": 4512,
      "Ġdig": 4513,
      "Ġfashion": 4514,
      "ĠDar": 4515,
      "pper": 4516,
      "Ġexist": 4517,
      "Ġproduced": 4518,
      "ĠBlack": 4519,
      "Ġwearing": 4520,
      "Ġissue": 4521,
      "ĠEn": 4522,
      "oves": 4523,
      "Ġheads": 4524,
      "Ġstruck": 4525,
      "SE": 4526,
      "range": 4527,
      "Ġyum": 4528,
      "Ġcart": 4529,
      "ĠKore": 4530,
      "Ġremain": 4531,
      "Ġevidence": 4532,
      "Ġmurder": 4533,
      "ĠAcademy": 4534,
      "Ġhuge": 4535,
      "Ġrevol": 4536,
      "Ġrail": 4537,
      "ĠBab": 4538,
      "ĠDO": 4539,
      "Ġplenty": 4540,
      "ucky": 4541,
      "Ġenergy": 4542,
      "Ġindivid": 4543,
      "Ġhotel": 4544,
      "Ġexperience": 4545,
      "Ġgentleman": 4546,
      "Ġavail": 4547,
      "Ġremarked": 4548,
      "Ġutter": 4549,
      "Ġtaste": 4550,
      "Celeste": 4551,
      "Ġmeaning": 4552,
      "Ġsmart": 4553,
      "Ġcountries": 4554,
      "Ġlistening": 4555,
      "Ġguns": 4556,
      "],": 4557,
      "Ġplans": 4558,
      "Ġcarefully": 4559,
      "\".\"": 4560,
      "UD": 4561,
      "orter": 4562,
      "orks": 4563,
      "Ġlid": 4564,
      "ĠChan": 4565,
      "Ġtells": 4566,
      ".'\"": 4567,
      "paper": 4568,
      "rated": 4569,
      "ĠMer": 4570,
      "Ġjour": 4571,
      "ĠGames": 4572,
      "osh": 4573,
      "Ġleader": 4574,
      "ĠSarah": 4575,
      "cue": 4576,
      "mie": 4577,
      "rican": 4578,
      "Ġdoc": 4579,
      "ĠMed": 4580,
      "Ġperfor": 4581,
      "Ġpurs": 4582,
      "Aye": 4583,
      "Never": 4584,
      "rim": 4585,
      "irgin": 4586,
      "ĠRoman": 4587,
      "Ġchoice": 4588,
      "iction": 4589,
      "they": 4590,
      "ledge": 4591,
      "Ġattract": 4592,
      "Ġsongs": 4593,
      "aign": 4594,
      "ooper": 4595,
      "ĠMel": 4596,
      "Ġcoast": 4597,
      "ĠEllie": 4598,
      "IE": 4599,
      "Ġcards": 4600,
      "Ġtoast": 4601,
      "Ġjungle": 4602,
      "elp": 4603,
      "Ġfeat": 4604,
      "Ġsoldiers": 4605,
      "Ġchocolate": 4606,
      "Sp": 4607,
      "ups": 4608,
      "ĠTony": 4609,
      "ossible": 4610,
      "ĠCharles": 4611,
      "Ġmotor": 4612,
      "Ġclimb": 4613,
      "RR": 4614,
      "Sir": 4615,
      "Ġcere": 4616,
      "ourt": 4617,
      "osta": 4618,
      "ruct": 4619,
      "Ġballs": 4620,
      "WH": 4621,
      "ĠMont": 4622,
      "ĠSen": 4623,
      "Ġremained": 4624,
      "Ġgenerally": 4625,
      "Ġhistor": 4626,
      "Ġgrave": 4627,
      "ĠLet": 4628,
      "Ġdesp": 4629,
      "Ġassist": 4630,
      "Ġimagine": 4631,
      "Ġtongue": 4632,
      "coughs": 4633,
      "Ġfund": 4634,
      "vell": 4635,
      "uten": 4636,
      "ĠSid": 4637,
      "ulf": 4638,
      "Ġtrunk": 4639,
      "ĠFlor": 4640,
      "Ġpaint": 4641,
      "Ġedge": 4642,
      "Ġeducation": 4643,
      "back": 4644,
      "Ġtravel": 4645,
      "Only": 4646,
      "Ġmodern": 4647,
      "Bl": 4648,
      "Ġweak": 4649,
      "ords": 4650,
      "Ġtext": 4651,
      "Ġofficers": 4652,
      "Ġdread": 4653,
      "Ġthou": 4654,
      "illiant": 4655,
      "Ġblind": 4656,
      "Ġdriver": 4657,
      "Ġcelebr": 4658,
      "Ġprivate": 4659,
      "Che": 4660,
      "eer": 4661,
      "Ġpa": 4662,
      "Ġwaste": 4663,
      "Ġstret": 4664,
      "Ġsits": 4665,
      "Ġclearly": 4666,
      "LLL": 4667,
      "Ġperfectly": 4668,
      "MB": 4669,
      "gress": 4670,
      "iber": 4671,
      "ram": 4672,
      "ishes": 4673,
      "ooh": 4674,
      "ĠAct": 4675,
      "Ġproceed": 4676,
      "ĠHere": 4677,
      "Ġperm": 4678,
      "After": 4679,
      "itation": 4680,
      "Ġpill": 4681,
      "Ġlog": 4682,
      "ĠAlden": 4683,
      "Ġsnake": 4684,
      "ification": 4685,
      "noise": 4686,
      "Ġfixed": 4687,
      "Ġbrave": 4688,
      "IL": 4689,
      "Ġtears": 4690,
      "ĠCass": 4691,
      "Ġships": 4692,
      "ĠRE": 4693,
      "Ġindic": 4694,
      "inese": 4695,
      "Ġdiscovered": 4696,
      "ironment": 4697,
      "da": 4698,
      "Ġemer": 4699,
      "Ġstairs": 4700,
      "ĠHam": 4701,
      "osing": 4702,
      "ĠOther": 4703,
      "Ġprice": 4704,
      "ocks": 4705,
      "Ġproduc": 4706,
      "nds": 4707,
      "Ġfirm": 4708,
      "urt": 4709,
      "These": 4710,
      "Ġmonster": 4711,
      "Ġbelieved": 4712,
      "Ġbrothers": 4713,
      "Ġrule": 4714,
      "Keep": 4715,
      "kins": 4716,
      "Ġdare": 4717,
      "ĠGold": 4718,
      "Ġvo": 4719,
      "Ġscrew": 4720,
      "Ġyounger": 4721,
      "Ġtrip": 4722,
      "Ġversion": 4723,
      "just": 4724,
      "Ġhill": 4725,
      "otte": 4726,
      "vere": 4727,
      "Ġknife": 4728,
      "Ġspoken": 4729,
      "Ġcontract": 4730,
      "Ġopposite": 4731,
      "Br": 4732,
      "Great": 4733,
      "ima": 4734,
      "ĠMic": 4735,
      "chuckles": 4736,
      "ĠPil": 4737,
      "Ġneither": 4738,
      "Ġseconds": 4739,
      "Ġcraw": 4740,
      "icy": 4741,
      "ushes": 4742,
      "ĠRem": 4743,
      "Ġprint": 4744,
      "Ġnurse": 4745,
      "Ġwan": 4746,
      "has": 4747,
      "Ġdun": 4748,
      "ĠWAS": 4749,
      "ĠOK": 4750,
      "Ġcircum": 4751,
      "JJ": 4752,
      "Ġsides": 4753,
      "Ġfaces": 4754,
      "enny": 4755,
      "ĠMot": 4756,
      "Ġsake": 4757,
      "Ġcalls": 4758,
      "Ġdemand": 4759,
      "cellent": 4760,
      "IGHT": 4761,
      "sych": 4762,
      "Ġnomin": 4763,
      "Ġteach": 4764,
      "Ġsurv": 4765,
      "ĠComp": 4766,
      "Ġhonor": 4767,
      "ĠGuy": 4768,
      "ĠMartin": 4769,
      "?'": 4770,
      "De": 4771,
      "oons": 4772,
      "Ġtaught": 4773,
      "Ġwoof": 4774,
      "rees": 4775,
      "Ġheat": 4776,
      "Ġshown": 4777,
      "ĠWil": 4778,
      "Ġunc": 4779,
      "Ġkinda": 4780,
      "Ġruns": 4781,
      "Ġairpl": 4782,
      "oking": 4783,
      "ĠScott": 4784,
      "zes": 4785,
      "Ġwed": 4786,
      "asy": 4787,
      "Ġweight": 4788,
      "Ġworried": 4789,
      "Ġbrain": 4790,
      "Ġshad": 4791,
      "Ġafterwards": 4792,
      "Ġchoose": 4793,
      "ilda": 4794,
      "ĠPeople": 4795,
      "Ġopportunity": 4796,
      "AVE": 4797,
      "ĠMid": 4798,
      "Ġarrow": 4799,
      "Ġflower": 4800,
      "ictor": 4801,
      "ĠMarg": 4802,
      "Ġenter": 4803,
      "Ġdecision": 4804,
      "Ġproduct": 4805,
      "Ġsandwich": 4806,
      "vi": 4807,
      "Ġlawyer": 4808,
      "Ġmodel": 4809,
      "ĠItalian": 4810,
      "iring": 4811,
      "ĠEuropean": 4812,
      "OD": 4813,
      "WE": 4814,
      "_.": 4815,
      "ios": 4816,
      "using": 4817,
      "Ġproperly": 4818,
      "Ġmountain": 4819,
      "Ġanxious": 4820,
      "Ġtar": 4821,
      "Ġwrest": 4822,
      "Ġhelping": 4823,
      "wr": 4824,
      "aning": 4825,
      "ĠNav": 4826,
      "ebye": 4827,
      "Ġaddition": 4828,
      "Ġpleasant": 4829,
      "ĠSmith": 4830,
      "-\"": 4831,
      "By": 4832,
      "Wow": 4833,
      "Ġign": 4834,
      "Ġdouble": 4835,
      "Ġge": 4836,
      "lend": 4837,
      "Ġsurr": 4838,
      "ĠWarren": 4839,
      "Ġpants": 4840,
      "ĠSaint": 4841,
      "Ġfounded": 4842,
      "Ġgrandma": 4843,
      "Ġtv": 4844,
      "Ġox": 4845,
      "ero": 4846,
      "istan": 4847,
      "raw": 4848,
      "Ġaccording": 4849,
      "ĠReg": 4850,
      "Ġbathroom": 4851,
      "oly": 4852,
      "ĠGab": 4853,
      "Ġcentre": 4854,
      "Ġincluded": 4855,
      "Ġjourney": 4856,
      "Pro": 4857,
      "Ġchat": 4858,
      "Ġant": 4859,
      "Ġcomment": 4860,
      "fection": 4861,
      "ĠChurch": 4862,
      "Ġforest": 4863,
      "hod": 4864,
      "Ġlower": 4865,
      "Ġspeech": 4866,
      "Ġcontact": 4867,
      "Ġopening": 4868,
      "Ġmagaz": 4869,
      "Ġnorthwest": 4870,
      "Ġharm": 4871,
      "Ġreck": 4872,
      "ĠMil": 4873,
      "ĠSl": 4874,
      "ĠSing": 4875,
      "aked": 4876,
      "From": 4877,
      "Ġprepared": 4878,
      "Um": 4879,
      "Ġtun": 4880,
      "Ġmut": 4881,
      "ĠTed": 4882,
      "Ġvote": 4883,
      "Ġshake": 4884,
      "izing": 4885,
      "arently": 4886,
      "Ġeffort": 4887,
      "ares": 4888,
      "ĠRand": 4889,
      "Ġgrowing": 4890,
      "Ġmarry": 4891,
      "Ġservices": 4892,
      "Ġpound": 4893,
      "Ġbrilliant": 4894,
      "cip": 4895,
      "Ġeighty": 4896,
      "ĠSpanish": 4897,
      "Ġevident": 4898,
      "Ġbudget": 4899,
      "Perhaps": 4900,
      "Ooh": 4901,
      "Ġrange": 4902,
      "ĠCatherine": 4903,
      "udd": 4904,
      "Ġobviously": 4905,
      "chard": 4906,
      "ĠChild": 4907,
      "UK": 4908,
      "hest": 4909,
      "Ġsoup": 4910,
      "ache": 4911,
      "Ġforces": 4912,
      "ĠGreen": 4913,
      "Ġshower": 4914,
      "Ġfalls": 4915,
      "Ġwalls": 4916,
      "ĠWhite": 4917,
      "host": 4918,
      "mn": 4919,
      "ĠFoot": 4920,
      "Ġquality": 4921,
      "angle": 4922,
      "Ġstructure": 4923,
      "ĠQueen": 4924,
      "oured": 4925,
      "hall": 4926,
      "erland": 4927,
      "Ġdepend": 4928,
      "ĠRog": 4929,
      "onday": 4930,
      "ograph": 4931,
      "Ġfairly": 4932,
      "Ġparticularly": 4933,
      "dam": 4934,
      "ĠTw": 4935,
      "ĠTy": 4936,
      "aboo": 4937,
      "Ġbringing": 4938,
      "Ġfavour": 4939,
      "Ġcomfortable": 4940,
      "Ġmedicine": 4941,
      "Ġsis": 4942,
      "Ġsour": 4943,
      "eds": 4944,
      "ĠNat": 4945,
      "ĠOld": 4946,
      "Ġexec": 4947,
      "Ġpapers": 4948,
      "ĠGerald": 4949,
      "Ġimpossible": 4950,
      "aura": 4951,
      "iggles": 4952,
      "ĠDoctor": 4953,
      "ocratic": 4954,
      "ĠChairman": 4955,
      "Com": 4956,
      "Mar": 4957,
      "Re": 4958,
      "Say": 4959,
      "gn": 4960,
      "Ġcivil": 4961,
      "oday": 4962,
      "thew": 4963,
      "Ġindepend": 4964,
      "Ġcontinue": 4965,
      "Ġtelephone": 4966,
      "',": 4967,
      "Ġir": 4968,
      "Ġgro": 4969,
      "ĠHy": 4970,
      "ĠRy": 4971,
      "Ġschools": 4972,
      "Ġeasier": 4973,
      "Ġcorrect": 4974,
      "Ġsusp": 4975,
      "Ġvictim": 4976,
      "Pe": 4977,
      "Ġtie": 4978,
      "ona": 4979,
      "ĠSea": 4980,
      "ĠAre": 4981,
      "Ġbyebye": 4982,
      "ĠStone": 4983,
      "ITH": 4984,
      "Ġcampaign": 4985,
      "Ġconcerned": 4986,
      "ĠJennie": 4987,
      "jo": 4988,
      "Ġoil": 4989,
      "Ġcases": 4990,
      "Ġfold": 4991,
      "Ġbeach": 4992,
      "ĠBern": 4993,
      "Ġneat": 4994,
      "Ġsomewhat": 4995,
      "Ġwilling": 4996,
      "Ġstayed": 4997,
      "Ġhunting": 4998,
      "abr": 4999,
      "ĠOrd": 5000,
      "Ġmanaged": 5001,
      "pering": 5002,
      "Ġpainting": 5003,
      "Ġreaches": 5004,
      "Ġwagon": 5005,
      "LES": 5006,
      "enne": 5007,
      "Ġstyle": 5008,
      "Ġknowing": 5009,
      "ĠKat": 5010,
      "ĠFriday": 5011,
      "ĠBefore": 5012,
      "Ġinvestig": 5013,
      "Ġsettled": 5014,
      "Ġliter": 5015,
      "Ġeld": 5016,
      "Ġknees": 5017,
      "ĠChina": 5018,
      "Ġcheek": 5019,
      "DS": 5020,
      "Gu": 5021,
      "Hold": 5022,
      "Ãº": 5023,
      "Ġdoors": 5024,
      "ĠAwards": 5025,
      "ching": 5026,
      "berg": 5027,
      "ooth": 5028,
      "Ġsmaller": 5029,
      "Ġcondition": 5030,
      "Ġrisk": 5031,
      "Fuck": 5032,
      "New": 5033,
      "ae": 5034,
      "nic": 5035,
      "Ġtid": 5036,
      "Ġscient": 5037,
      "Ġmult": 5038,
      "aly": 5039,
      "Ġcancer": 5040,
      "Ġsuc": 5041,
      "Ġvac": 5042,
      "Ġslide": 5043,
      "arliam": 5044,
      "Ġcenter": 5045,
      "ĠCanada": 5046,
      "Ġlocated": 5047,
      "Ġfemale": 5048,
      "Tr": 5049,
      "aches": 5050,
      "ĠSim": 5051,
      "eaks": 5052,
      "umber": 5053,
      "ĠWE": 5054,
      "apa": 5055,
      "Ġclaim": 5056,
      "Ġsucceed": 5057,
      "essel": 5058,
      "Ġlatter": 5059,
      "ented": 5060,
      "ĠMore": 5061,
      "Ġconv": 5062,
      "Ġslaves": 5063,
      "Ġobjects": 5064,
      "ĠGeorg": 5065,
      "non": 5066,
      "Ġ!\"": 5067,
      "Ġpony": 5068,
      "Ġthus": 5069,
      "sequ": 5070,
      "Ġworst": 5071,
      "Ġdrinking": 5072,
      "Ġcloser": 5073,
      "Poss": 5074,
      "itched": 5075,
      "omed": 5076,
      "Ġdozen": 5077,
      "Ġstaff": 5078,
      "Ġknee": 5079,
      "Ġaffect": 5080,
      "Ġballoon": 5081,
      "ounce": 5082,
      "Ġmovement": 5083,
      "Ġtickle": 5084,
      "bon": 5085,
      "sha": 5086,
      "Ġtask": 5087,
      "ĠRol": 5088,
      "Ġprevious": 5089,
      "Ġbits": 5090,
      "Ġfinding": 5091,
      "Ġdistribut": 5092,
      "Ġcolonel": 5093,
      "Ġretired": 5094,
      "Ġmurd": 5095,
      "Ġpossibly": 5096,
      "Ġ#": 5097,
      "Ġbub": 5098,
      "urb": 5099,
      "ĠBig": 5100,
      "Ġprefer": 5101,
      "Ġopin": 5102,
      "Ġbegins": 5103,
      "Isn": 5104,
      "Ġwindows": 5105,
      "Ġcastle": 5106,
      "Ġbenef": 5107,
      "Ġtitle": 5108,
      "Ġresearch": 5109,
      "cy": 5110,
      "ule": 5111,
      "ota": 5112,
      "Ġrout": 5113,
      "ĠMolly": 5114,
      "allas": 5115,
      "Ġchanges": 5116,
      "Ġfeels": 5117,
      "Ġsquee": 5118,
      "Ġofficial": 5119,
      "arliament": 5120,
      "rid": 5121,
      "isher": 5122,
      "atoes": 5123,
      "tering": 5124,
      "ĠPal": 5125,
      "ĠWhile": 5126,
      "ĠVirgin": 5127,
      "Ġsuspect": 5128,
      "ĠParis": 5129,
      "mar": 5130,
      "sighs": 5131,
      "Ġboss": 5132,
      "imate": 5133,
      "Ġstock": 5134,
      "ulated": 5135,
      "Ġpoet": 5136,
      "Ġstaying": 5137,
      "Ġrules": 5138,
      "Ġrapid": 5139,
      "ĠBecky": 5140,
      "Ġcircumst": 5141,
      "Mom": 5142,
      "Put": 5143,
      "spect": 5144,
      "Ġcrime": 5145,
      "Ġdeveloped": 5146,
      "Ġstatement": 5147,
      "SSS": 5148,
      "Ġevents": 5149,
      "ederal": 5150,
      "Ġtoes": 5151,
      "see": 5152,
      "ĠSand": 5153,
      "ura": 5154,
      "Ġfruit": 5155,
      "Ġplayers": 5156,
      "Ġprevent": 5157,
      "Ġaircraft": 5158,
      "Ġrocks": 5159,
      "Ġappearance": 5160,
      "itzerland": 5161,
      "Ġrepeated": 5162,
      "BC": 5163,
      "rot": 5164,
      "Åį": 5165,
      "Ġodd": 5166,
      "Ġpair": 5167,
      "ĠTucker": 5168,
      "ĠCamp": 5169,
      "ĠPet": 5170,
      "ĠPak": 5171,
      "Ġflag": 5172,
      "Ġobl": 5173,
      "ĠBarry": 5174,
      "Ġwhispered": 5175,
      "silver": 5176,
      "ĠFlorida": 5177,
      "First": 5178,
      "IA": 5179,
      "onse": 5180,
      "asing": 5181,
      "Ġdoin": 5182,
      "ĠMY": 5183,
      "ĠAsian": 5184,
      "Ġordered": 5185,
      "bits": 5186,
      "Ġaver": 5187,
      "isa": 5188,
      "Ġforced": 5189,
      "ental": 5190,
      "ĠDick": 5191,
      "appy": 5192,
      "Ġleading": 5193,
      "ĠLucy": 5194,
      "fess": 5195,
      "pet": 5196,
      "with": 5197,
      "Ġbal": 5198,
      "Ġmail": 5199,
      "Ġmeal": 5200,
      "ĠBell": 5201,
      "ĠHE": 5202,
      "Ġsposta": 5203,
      "icked": 5204,
      "Ġtroops": 5205,
      "Ġbloody": 5206,
      "ĠLoire": 5207,
      "rate": 5208,
      "tles": 5209,
      "Ġfishing": 5210,
      "anning": 5211,
      "Ġancient": 5212,
      "Ġwhist": 5213,
      "ifle": 5214,
      "ĠDep": 5215,
      "Ġmanager": 5216,
      "ĠStan": 5217,
      "Ġwriter": 5218,
      "Ġremind": 5219,
      "Ġscrat": 5220,
      "Ġresol": 5221,
      "Ġmagic": 5222,
      "Ġcarrying": 5223,
      "ĠSwitzerland": 5224,
      "Ġslightly": 5225,
      "ĠSecret": 5226,
      "ĠMexico": 5227,
      "ua": 5228,
      "iti": 5229,
      "atory": 5230,
      "stood": 5231,
      "ores": 5232,
      "ĠFenn": 5233,
      "ĠEven": 5234,
      "Ġcrayons": 5235,
      "ĠRoyal": 5236,
      "ashington": 5237,
      "Ġscarcely": 5238,
      "Ġenvironment": 5239,
      "Ġaward": 5240,
      "ria": 5241,
      "ishment": 5242,
      "ĠChinese": 5243,
      "Ġteams": 5244,
      "Ġsigned": 5245,
      "Miss": 5246,
      "Ġfoc": 5247,
      "aling": 5248,
      "enth": 5249,
      "ĠFin": 5250,
      "ĠUrs": 5251,
      "adder": 5252,
      "Ġcrash": 5253,
      "Ġkeeps": 5254,
      "ĠRussian": 5255,
      "Ġblanket": 5256,
      "Ġappreci": 5257,
      "Ġavailable": 5258,
      "Ne": 5259,
      "die": 5260,
      "ker": 5261,
      "ĠÃ": 5262,
      "ĠAT": 5263,
      "illed": 5264,
      "cean": 5265,
      "ĠLos": 5266,
      "aws": 5267,
      "Ġelected": 5268,
      "Ġsixty": 5269,
      "Ġsuccessful": 5270,
      "tr": 5271,
      "Ġbi": 5272,
      "Ġbee": 5273,
      "ila": 5274,
      "ĠEvery": 5275,
      "aving": 5276,
      "anche": 5277,
      "Ġpulls": 5278,
      "Ġsoftly": 5279,
      "Se": 5280,
      "lah": 5281,
      "Ġcute": 5282,
      "Ġpsych": 5283,
      "aled": 5284,
      "Ġbutt": 5285,
      "acks": 5286,
      "Ġalt": 5287,
      "Ġexcit": 5288,
      "rica": 5289,
      "Ġholiday": 5290,
      "looking": 5291,
      "Ġpour": 5292,
      "Ġstre": 5293,
      "Ġstro": 5294,
      "ilian": 5295,
      "Ġknowledge": 5296,
      "ĠDiv": 5297,
      "ĠJew": 5298,
      "ulous": 5299,
      "ĠRes": 5300,
      "Ġvessel": 5301,
      "Ġacting": 5302,
      "Ġknocked": 5303,
      "Ġcopy": 5304,
      "ĠCollege": 5305,
      "Ġairplane": 5306,
      "Ste": 5307,
      "gen": 5308,
      "gain": 5309,
      "pre": 5310,
      "Ġtour": 5311,
      "ĠLat": 5312,
      "Ġexcellent": 5313,
      "bey": 5314,
      "ĠFranc": 5315,
      "Ġtraining": 5316,
      "fortun": 5317,
      "Alright": 5318,
      "ĠRepublic": 5319,
      "utenant": 5320,
      "uf": 5321,
      "Ġfancy": 5322,
      "ĠMount": 5323,
      "umn": 5324,
      "Ġtrade": 5325,
      "Ġotherwise": 5326,
      "Ġsilent": 5327,
      "iety": 5328,
      "Ġpow": 5329,
      "Ġheaven": 5330,
      "otion": 5331,
      "ĠMur": 5332,
      "Ġplants": 5333,
      "ĠLab": 5334,
      "Ġdragon": 5335,
      "Ġdecide": 5336,
      "Ġforgotten": 5337,
      "Ġdetermined": 5338,
      "Ġbike": 5339,
      "Ġfought": 5340,
      "Ġrom": 5341,
      "ĠMike": 5342,
      "Ġassoci": 5343,
      "Ġ\"[.": 5344,
      "Ġafford": 5345,
      "Ġthrowing": 5346,
      "Ġrealize": 5347,
      "Ġsuggested": 5348,
      "ĠSummer": 5349,
      "fa": 5350,
      "Ġgently": 5351,
      "ena": 5352,
      "ĠHay": 5353,
      "ĠDay": 5354,
      "eping": 5355,
      "Ġdolls": 5356,
      "ĠCanad": 5357,
      "Ġetc": 5358,
      "GE": 5359,
      "hab": 5360,
      "Ġbare": 5361,
      "Ġdise": 5362,
      "Ġthin": 5363,
      "ĠDallas": 5364,
      "Ġamazing": 5365,
      "Ġextreme": 5366,
      "Ġhanging": 5367,
      "aa": 5368,
      "Ġcred": 5369,
      "Ġhomes": 5370,
      "etch": 5371,
      "ĠAnt": 5372,
      "ĠAcc": 5373,
      "Ġgoal": 5374,
      "ĠCO": 5375,
      "rost": 5376,
      "Ġjigs": 5377,
      "ĠDes": 5378,
      "Ġuses": 5379,
      "Ġclap": 5380,
      "tained": 5381,
      "Ġpresence": 5382,
      "Ġburst": 5383,
      "ĠColonel": 5384,
      "Ġorders": 5385,
      "Ġmemory": 5386,
      "ĠHal": 5387,
      "Ġtractor": 5388,
      "HER": 5389,
      "ĠChicago": 5390,
      "NN": 5391,
      "fly": 5392,
      "Ġfond": 5393,
      "uns": 5394,
      "Ġsaf": 5395,
      "Ġfeelings": 5396,
      "Ġstops": 5397,
      "Ġrelated": 5398,
      "ĠCharlotte": 5399,
      "Ġoffered": 5400,
      "lor": 5401,
      "Ġthee": 5402,
      "Ġder": 5403,
      "Ġlake": 5404,
      "ado": 5405,
      "Ġrat": 5406,
      "Ġarrange": 5407,
      "ultan": 5408,
      "Ġresponse": 5409,
      "Ġshopping": 5410,
      "Ġrelationship": 5411,
      "gent": 5412,
      "Ġbin": 5413,
      "Ġupset": 5414,
      "uments": 5415,
      "ĠJer": 5416,
      "action": 5417,
      "Ġthrown": 5418,
      "Ġturtle": 5419,
      "Ġpalace": 5420,
      "Nice": 5421,
      "ga": 5422,
      "Ġmate": 5423,
      "Ġgang": 5424,
      "ĠMo": 5425,
      "ĠBet": 5426,
      "place": 5427,
      "Ġbarn": 5428,
      "Ġyay": 5429,
      "Ġrelease": 5430,
      "ĠMonday": 5431,
      "Ġdebut": 5432,
      "ols": 5433,
      "olars": 5434,
      "ĠWashington": 5435,
      "Ġsports": 5436,
      "Ġkinds": 5437,
      "Ġaware": 5438,
      "Ġrespond": 5439,
      "$=": 5440,
      "Ġpred": 5441,
      "ĠProv": 5442,
      "Ġrequire": 5443,
      "Ġrecognized": 5444,
      "ĠAwww": 5445,
      "izza": 5446,
      "Ġgreatest": 5447,
      "Ġdolly": 5448,
      "Ġmagn": 5449,
      "Ġgovernor": 5450,
      "ĠJean": 5451,
      "Ġmicrophone": 5452,
      "book": 5453,
      "isions": 5454,
      "Ġsees": 5455,
      "Ġsocks": 5456,
      "Ġshoulders": 5457,
      "Ġflight": 5458,
      "ĠMarilla": 5459,
      "ESS": 5460,
      "ĠArab": 5461,
      "Ġeighteen": 5462,
      "ĠOlympics": 5463,
      "Ġwestern": 5464,
      "ĠJess": 5465,
      "ĠEarly": 5466,
      "ĠVictor": 5467,
      "Ġstranger": 5468,
      "Ġfrogs": 5469,
      "fall": 5470,
      "Ġyo": 5471,
      "Ġnarrow": 5472,
      "Ġ\"[$=": 5473,
      "Ġexerc": 5474,
      "Ġpartner": 5475,
      "Ġthoughts": 5476,
      "ajest": 5477,
      "Ġquietly": 5478,
      "Ġnursery": 5479,
      "About": 5480,
      "Ġaye": 5481,
      "Ġfox": 5482,
      "ĠDis": 5483,
      "Ġvalue": 5484,
      "lahoma": 5485,
      "Ġexcitement": 5486,
      "Rem": 5487,
      "down": 5488,
      "Ġfurn": 5489,
      "ĠSince": 5490,
      "ĠBoy": 5491,
      "Ġdeck": 5492,
      "Ġeverywhere": 5493,
      "Ġshowing": 5494,
      "Ġlarger": 5495,
      "Ġyummy": 5496,
      "Ġmor": 5497,
      "ingu": 5498,
      "ĠIr": 5499,
      "oms": 5500,
      "ĠSus": 5501,
      "Ġnovel": 5502,
      "ulations": 5503,
      "Ġfourth": 5504,
      "Ġmatters": 5505,
      "ĠEdm": 5506,
      "Ġpatient": 5507,
      "ĠScot": 5508,
      "ĠMatthew": 5509,
      "Ġremembered": 5510,
      "Ã¨": 5511,
      "ĠDel": 5512,
      "soft": 5513,
      "ogether": 5514,
      "Ġwaited": 5515,
      "Ġfully": 5516,
      "Ġformula": 5517,
      "ĠOklahoma": 5518,
      "Ġsite": 5519,
      "ata": 5520,
      "ĠBest": 5521,
      "ĠPost": 5522,
      "ĠPolly": 5523,
      "Ġextend": 5524,
      "Ġterr": 5525,
      "Ġneighbor": 5526,
      "pan": 5527,
      "hah": 5528,
      "Ġshr": 5529,
      "inky": 5530,
      "Ġdrama": 5531,
      "mend": 5532,
      "Ġwitness": 5533,
      "ship": 5534,
      "Ġpushed": 5535,
      "Ġnorthern": 5536,
      "Ġweird": 5537,
      "ĠHaw": 5538,
      "Ġprepar": 5539,
      "Ġsmiling": 5540,
      "Ġzoo": 5541,
      "Ġescap": 5542,
      "Ġdetect": 5543,
      "Ġfrightened": 5544,
      "ĠOrder": 5545,
      "dies": 5546,
      "Ġachie": 5547,
      "Ġsch": 5548,
      "Ġmo": 5549,
      "inger": 5550,
      "Ġprogress": 5551,
      "Ġscreen": 5552,
      "Ġjudge": 5553,
      "Am": 5554,
      "ILL": 5555,
      "KN": 5556,
      "giggles": 5557,
      "ko": 5558,
      "Ġ...\"": 5559,
      "ano": 5560,
      "ora": 5561,
      "ĠBay": 5562,
      "ilities": 5563,
      "Ġ(;": 5564,
      "ĠUN": 5565,
      "Ġcourage": 5566,
      "Ġtrail": 5567,
      "ĠMargaret": 5568,
      "Ġwipe": 5569,
      "ĠJud": 5570,
      "ĠLee": 5571,
      "Ġstudied": 5572,
      "Ġbatter": 5573,
      "Ġburied": 5574,
      "Ġpeekaboo": 5575,
      "bow": 5576,
      "pen": 5577,
      "Ġwave": 5578,
      "Ġsac": 5579,
      "Ġcousin": 5580,
      "Ġdying": 5581,
      "Ġstir": 5582,
      "urry": 5583,
      "this": 5584,
      "annah": 5585,
      "Ġadminist": 5586,
      "Ġserve": 5587,
      "Ġfarmer": 5588,
      "Ġexplained": 5589,
      "Ġdata": 5590,
      "ĠAirport": 5591,
      "put": 5592,
      "Ġsink": 5593,
      "hand": 5594,
      "ading": 5595,
      "ĠTown": 5596,
      "Ġriding": 5597,
      "Ġstom": 5598,
      "Ġmere": 5599,
      "odd": 5600,
      "Ġopens": 5601,
      "apping": 5602,
      "ĠCla": 5603,
      "Ġestabl": 5604,
      "ials": 5605,
      "Ġtim": 5606,
      "azy": 5607,
      "Ġinstant": 5608,
      "Ġpowerful": 5609,
      "ĠCromer": 5610,
      "Ġdirectly": 5611,
      "ĠGovernor": 5612,
      "Pl": 5613,
      "wing": 5614,
      "icles": 5615,
      "ĠAbe": 5616,
      "chief": 5617,
      "Ġplat": 5618,
      "ĠOx": 5619,
      "ateg": 5620,
      "awa": 5621,
      "Ġpassing": 5622,
      "UST": 5623,
      "KAR": 5624,
      "Tom": 5625,
      "ients": 5626,
      "Ġfile": 5627,
      "ĠMam": 5628,
      "ĠMax": 5629,
      "ĠStep": 5630,
      "chair": 5631,
      "Didn": 5632,
      "Ġcompanion": 5633,
      "ĠAngeles": 5634,
      "ĠSanta": 5635,
      "rec": 5636,
      "Ġgift": 5637,
      "Ġ[?": 5638,
      "ĠLaura": 5639,
      "Ġqual": 5640,
      "Ġgreater": 5641,
      "Ġbug": 5642,
      "ONE": 5643,
      "Ġreply": 5644,
      "Ġsentence": 5645,
      "Ġplanning": 5646,
      "Ġbaseball": 5647,
      "Ġcooking": 5648,
      "Ġwedding": 5649,
      "Ġpra": 5650,
      "Ġroles": 5651,
      "ĠBO": 5652,
      "uman": 5653,
      "uclear": 5654,
      "Ġentertain": 5655,
      "ĠAfrica": 5656,
      "ĠWindows": 5657,
      "Ġsafety": 5658,
      "Ġmouse": 5659,
      "semb": 5660,
      "cel": 5661,
      "actually": 5662,
      "Ġflo": 5663,
      "Ġcontr": 5664,
      "Ġrecently": 5665,
      "Shut": 5666,
      "Ġconstruction": 5667,
      "ĠVirginia": 5668,
      "Gl": 5669,
      "rick": 5670,
      "uous": 5671,
      "ĠCast": 5672,
      "urance": 5673,
      "ĠPri": 5674,
      "venue": 5675,
      "Ġbecoming": 5676,
      "ibility": 5677,
      "Ġmission": 5678,
      "Ġincludes": 5679,
      "Ġprize": 5680,
      "Ġbowl": 5681,
      "Ġaverage": 5682,
      "ault": 5683,
      "sec": 5684,
      "Ġepisode": 5685,
      "ĠGabrie": 5686,
      "Ġreckon": 5687,
      "Ġopinion": 5688,
      "rant": 5689,
      "Ġbump": 5690,
      "ĠMos": 5691,
      "olic": 5692,
      "Ġpeas": 5693,
      "Ġadvant": 5694,
      "Ġrecognize": 5695,
      "Possum": 5696,
      "cul": 5697,
      "ware": 5698,
      "aming": 5699,
      "Ġplastic": 5700,
      "ĠRock": 5701,
      "ĠRachel": 5702,
      "ĠBarty": 5703,
      "Ġmainly": 5704,
      "ĠBradley": 5705,
      "Ġexpression": 5706,
      "iliar": 5707,
      "aed": 5708,
      "sed": 5709,
      "was": 5710,
      "year": 5711,
      "Ġwid": 5712,
      "Ġtooth": 5713,
      "ĠTim": 5714,
      "Ġrings": 5715,
      "alley": 5716,
      "Ġshook": 5717,
      "ANT": 5718,
      "ĠArt": 5719,
      "Ġpapa": 5720,
      "Ġsticks": 5721,
      "Ġnormally": 5722,
      "Ġmirror": 5723,
      "Ġdunno": 5724,
      "fessor": 5725,
      "li": 5726,
      "vo": 5727,
      "Ġess": 5728,
      "Ġwheels": 5729,
      "Ġshock": 5730,
      "ĠRuth": 5731,
      "lands": 5732,
      "Ġevil": 5733,
      "Mother": 5734,
      "Ġ\"..": 5735,
      "astern": 5736,
      "Ġforms": 5737,
      "ĠSun": 5738,
      "Ġshell": 5739,
      "abeth": 5740,
      "ĠSpain": 5741,
      "ĠGrandma": 5742,
      "Ġjigsaw": 5743,
      "iy": 5744,
      "Ġscience": 5745,
      "Ġmama": 5746,
      "ential": 5747,
      "Ġshel": 5748,
      "ĠFil": 5749,
      "ishop": 5750,
      "Ġcarriage": 5751,
      "ĠHarold": 5752,
      "ĠZeal": 5753,
      "Those": 5754,
      "Ġcircumstances": 5755,
      "EE": 5756,
      "road": 5757,
      "Ġsore": 5758,
      "ulty": 5759,
      "Ġsplend": 5760,
      "Ġarg": 5761,
      "Ġweeke": 5762,
      "Ġwondering": 5763,
      "Ġhorsie": 5764,
      "ournament": 5765,
      "ĠBraz": 5766,
      "AC": 5767,
      "Con": 5768,
      "Lea": 5769,
      "bie": 5770,
      "there": 5771,
      "Ã¤": 5772,
      "Ġcad": 5773,
      "Ġfuss": 5774,
      "Ġpump": 5775,
      "ste": 5776,
      "Ġdey": 5777,
      "rying": 5778,
      "useum": 5779,
      "asty": 5780,
      "Ġbiggest": 5781,
      "ĠMayenne": 5782,
      "ĠRoad": 5783,
      "Ġmagazine": 5784,
      "Man": 5785,
      "ĠBa": 5786,
      "Ġmarriage": 5787,
      "Ġbeauty": 5788,
      "Ġlanguages": 5789,
      "Ġveh": 5790,
      "Ġproperty": 5791,
      "ĠPilchard": 5792,
      "Ġtip": 5793,
      "hew": 5794,
      "Ġmale": 5795,
      "orge": 5796,
      "Ġboats": 5797,
      "Ġqueer": 5798,
      "ĠVan": 5799,
      "Ġdesper": 5800,
      "Ġreceive": 5801,
      "Ġfailed": 5802,
      "Ġseparate": 5803,
      "Ġtarget": 5804,
      "Ġestablished": 5805,
      "Act": 5806,
      "Chi": 5807,
      "ube": 5808,
      "isse": 5809,
      "Ġinternational": 5810,
      "EST": 5811,
      "ĠBlue": 5812,
      "Everything": 5813,
      "Ġshouted": 5814,
      "making": 5815,
      "Ġbisc": 5816,
      "Ġyards": 5817,
      "Ġcy": 5818,
      "icans": 5819,
      "Ġselected": 5820,
      "Ġaside": 5821,
      "ĠRel": 5822,
      "Ġbranch": 5823,
      "Ġunknown": 5824,
      "Ġtend": 5825,
      "Ġjobs": 5826,
      "ĠTHIS": 5827,
      "ĠKingdom": 5828,
      "Ġpressure": 5829,
      "Ġelectric": 5830,
      "ĠItaly": 5831,
      "Ġperformance": 5832,
      ";\"": 5833,
      "Call": 5834,
      "ias": 5835,
      "Ġcal": 5836,
      "Ġpizza": 5837,
      "Ġnative": 5838,
      "ĠHAVE": 5839,
      "Ġspin": 5840,
      "aging": 5841,
      "Ġprove": 5842,
      "ontin": 5843,
      "azed": 5844,
      "Ġtotally": 5845,
      "Ġcurrently": 5846,
      "Dad": 5847,
      "Fine": 5848,
      "mark": 5849,
      "Ġaim": 5850,
      "Ġhook": 5851,
      "Ġthir": 5852,
      "ĠCourt": 5853,
      "rol": 5854,
      "Ġagent": 5855,
      "Ġtribe": 5856,
      "gypt": 5857,
      "Ġperformed": 5858,
      "ĠGeorgia": 5859,
      "NOW": 5860,
      "Tilda": 5861,
      "Ġwished": 5862,
      "Ġreasons": 5863,
      "ĠMaster": 5864,
      "Ġsection": 5865,
      "ĠDolly": 5866,
      "ĠLake": 5867,
      "Ġhurried": 5868,
      "Ġcookies": 5869,
      "Ġadvice": 5870,
      "ĠDemocratic": 5871,
      "Something": 5872,
      "Ġcam": 5873,
      "Ġthy": 5874,
      "ĠMal": 5875,
      "ĠSal": 5876,
      "ĠPays": 5877,
      "ellig": 5878,
      "ĠFirst": 5879,
      "Ġamb": 5880,
      "Ġremoved": 5881,
      "ĠChief": 5882,
      "Ġinterview": 5883,
      "ological": 5884,
      "ĠChampionship": 5885,
      "Dr": 5886,
      "boy": 5887,
      "tin": 5888,
      "uits": 5889,
      "ooke": 5890,
      "Ġdoggy": 5891,
      "ĠJason": 5892,
      "ĠLO": 5893,
      "Ġexciting": 5894,
      "Ġengaged": 5895,
      "Ġrequest": 5896,
      "Ġfrequ": 5897,
      "Ġ\"ï¿": 5898,
      "heast": 5899,
      "Ġduh": 5900,
      "Ġpale": 5901,
      "Ġgat": 5902,
      "herry": 5903,
      "ĠWomen": 5904,
      "eme": 5905,
      "Ġdism": 5906,
      "Ġmatches": 5907,
      "Ġdreams": 5908,
      "Ġdescribed": 5909,
      "Ġentirely": 5910,
      "Ġvoices": 5911,
      "ĠFootball": 5912,
      "Ġtummy": 5913,
      "vert": 5914,
      "illing": 5915,
      "ĠEarth": 5916,
      "Ġtrous": 5917,
      "Ġeaten": 5918,
      "Ġterrit": 5919,
      "Ġmetal": 5920,
      "ĠAfrican": 5921,
      "ĠJeff": 5922,
      "Ġdamn": 5923,
      "Ġhighest": 5924,
      "Ġindividual": 5925,
      "EB": 5926,
      "UGH": 5927,
      "vis": 5928,
      "ĠDutch": 5929,
      "ĠEgypt": 5930,
      "Ġchampions": 5931,
      "Ġactive": 5932,
      "Three": 5933,
      "Ġartist": 5934,
      "Ġdisappeared": 5935,
      "Ġfortune": 5936,
      "Ġresults": 5937,
      "ĠRussia": 5938,
      "Ġtradition": 5939,
      "People": 5940,
      "then": 5941,
      "Ġwine": 5942,
      "Ġjail": 5943,
      "ĠLar": 5944,
      "iano": 5945,
      "Ġcentral": 5946,
      "Ġpositive": 5947,
      "Ġnewspaper": 5948,
      "Ġveget": 5949,
      "Amer": 5950,
      "Ha": 5951,
      "while": 5952,
      "opher": 5953,
      "osen": 5954,
      "Ġsomehow": 5955,
      "Ġunderstood": 5956,
      "Ġhelps": 5957,
      "Ġchest": 5958,
      "ĠArmy": 5959,
      "Ġdelicious": 5960,
      "Ġmedical": 5961,
      "Ġincrease": 5962,
      "ĠRoger": 5963,
      "Le": 5964,
      "ses": 5965,
      "win": 5966,
      "itiz": 5967,
      "Ġfac": 5968,
      "oto": 5969,
      "ĠTer": 5970,
      "ĠFrost": 5971,
      "Ġthrows": 5972,
      "Ġadop": 5973,
      "aft": 5974,
      "war": 5975,
      "Ġsouthern": 5976,
      "Ġghost": 5977,
      "ĠSa": 5978,
      "Ġjoke": 5979,
      "umbo": 5980,
      "geant": 5981,
      "ĠFre": 5982,
      "rig": 5983,
      "Ġsmiled": 5984,
      "Ġdrops": 5985,
      "Ġpaying": 5986,
      "Ġfairy": 5987,
      "ĠBritain": 5988,
      "whispers": 5989,
      "anchester": 5990,
      "ĠMu": 5991,
      "ilies": 5992,
      "ĠBrown": 5993,
      "Ġtransfer": 5994,
      "III": 5995,
      "Ġdamage": 5996,
      "Ġautom": 5997,
      "Ã¶": 5998,
      "isha": 5999,
      "Ġnut": 6000,
      "Ġhes": 6001,
      "amily": 6002,
      "ĠMet": 6003,
      "Ġtalks": 6004,
      "Ġfriendly": 6005,
      "ĠBecause": 6006,
      "Ġconstit": 6007,
      "Ġjumped": 6008,
      "Ġgentlemen": 6009,
      "Ġtouched": 6010,
      "Ġideas": 6011,
      "IV": 6012,
      "cream": 6013,
      "puts": 6014,
      "ĠMill": 6015,
      "ĠFa": 6016,
      "ĠGar": 6017,
      "Ġhorrible": 6018,
      "Ġstudents": 6019,
      "Ġsweetheart": 6020,
      "ĠXX": 6021,
      "Ġgradu": 6022,
      "ĠRemi": 6023,
      "ajesty": 6024,
      "Ġtrousers": 6025,
      "sm": 6026,
      "itar": 6027,
      "Ġpil": 6028,
      "Ġug": 6029,
      "Ġrib": 6030,
      "Ġmel": 6031,
      "ĠRec": 6032,
      "Ġvot": 6033,
      "Ġscore": 6034,
      "Ġcommittee": 6035,
      "Ġglance": 6036,
      "Ġsignific": 6037,
      "Ġprovide": 6038,
      "Ġforever": 6039,
      "Ġissues": 6040,
      "Ġcruel": 6041,
      "aeddin": 6042,
      "ĠZealand": 6043,
      "fish": 6044,
      "gency": 6045,
      "Ġdesire": 6046,
      "oki": 6047,
      "Ġprovided": 6048,
      "Ġparticip": 6049,
      "Ġresponsible": 6050,
      "fers": 6051,
      "Ġmort": 6052,
      "ĠTra": 6053,
      "Ġkm": 6054,
      "ĠBull": 6055,
      "ĠDou": 6056,
      "ĠDid": 6057,
      "izabeth": 6058,
      "Ġadult": 6059,
      "ĠAlaeddin": 6060,
      "Ġdrawn": 6061,
      "Mrs": 6062,
      "Ġpuppy": 6063,
      "Ġinfluence": 6064,
      "ĠFrancis": 6065,
      "Jack": 6066,
      "ridge": 6067,
      "Ġdust": 6068,
      "icing": 6069,
      "ĠMajor": 6070,
      "ĠAh": 6071,
      "unts": 6072,
      "ĠNOT": 6073,
      "ĠNed": 6074,
      "icking": 6075,
      "Ġdisp": 6076,
      "Ġends": 6077,
      "Ġentr": 6078,
      "Ġreplaced": 6079,
      "Ġbeneath": 6080,
      "ĠEdmund": 6081,
      "Hmm": 6082,
      "John": 6083,
      "Ġnation": 6084,
      "ĠMAN": 6085,
      "ĠHER": 6086,
      "Ġsole": 6087,
      "ĠWent": 6088,
      "ĠWho": 6089,
      "Ġswitch": 6090,
      "Ġcutting": 6091,
      "Ġoccurred": 6092,
      "MW": 6093,
      "OH": 6094,
      "sung": 6095,
      "icated": 6096,
      "utive": 6097,
      "Ġstones": 6098,
      "umble": 6099,
      "thur": 6100,
      "Ġsecurity": 6101,
      "ĠYour": 6102,
      "Ġapparently": 6103,
      "Ġslave": 6104,
      "Ġdrunk": 6105,
      "Ġfamiliar": 6106,
      "Ġterror": 6107,
      "Ġinstr": 6108,
      "ipping": 6109,
      "Ġmountains": 6110,
      "Ġauthority": 6111,
      "ĠAlfgar": 6112,
      "Ġdegree": 6113,
      "TT": 6114,
      "Ġwore": 6115,
      "Ġfart": 6116,
      "Ġpant": 6117,
      "Ġloose": 6118,
      "Ġliber": 6119,
      "ĠPo": 6120,
      "gel": 6121,
      "Ġinspect": 6122,
      "Ġcharacters": 6123,
      "Ġfolks": 6124,
      "ĠProvince": 6125,
      "HAR": 6126,
      "UCK": 6127,
      "morrow": 6128,
      "Ġ\".\"": 6129,
      "rond": 6130,
      "ĠEmp": 6131,
      "----\"": 6132,
      "ĠProfessor": 6133,
      "ĠJimmy": 6134,
      "Ġgarage": 6135,
      "Ġstomach": 6136,
      "Ġgathered": 6137,
      "rom": 6138,
      "eral": 6139,
      "athan": 6140,
      "Ġhorn": 6141,
      "ĠSqu": 6142,
      "ilty": 6143,
      "ĠGreek": 6144,
      "apt": 6145,
      "ĠUm": 6146,
      "Ġcoal": 6147,
      "ocr": 6148,
      "Ġuseful": 6149,
      "iffs": 6150,
      "Ġsoldier": 6151,
      "Ġinnoc": 6152,
      "ĠRamsey": 6153,
      "Ġdisease": 6154,
      "Ġthirteen": 6155,
      "law": 6156,
      "yes": 6157,
      "Ġwound": 6158,
      "Ġfan": 6159,
      "Ġfaint": 6160,
      "ani": 6161,
      "ĠCome": 6162,
      "ĠHad": 6163,
      "ĠNE": 6164,
      "Ġcock": 6165,
      "ĠAssoci": 6166,
      "Ġenjoyed": 6167,
      "Ġweapons": 6168,
      "Ġnearer": 6169,
      "Ġoblig": 6170,
      "bu": 6171,
      "Ġreve": 6172,
      "ongrat": 6173,
      "ĠKansas": 6174,
      "Ġcommun": 6175,
      "Ġcats": 6176,
      "ERS": 6177,
      "ĠEdward": 6178,
      "Ġspecific": 6179,
      "Ġburning": 6180,
      "Ġdestroyed": 6181,
      "ĠSecretary": 6182,
      "vest": 6183,
      "Ġfant": 6184,
      "Ġitems": 6185,
      "Ġwashing": 6186,
      "Ġrare": 6187,
      "ĠSov": 6188,
      "ros": 6189,
      "ĠNight": 6190,
      "oston": 6191,
      "Ġarch": 6192,
      "Ġshame": 6193,
      "Ġchairs": 6194,
      "Ġpossess": 6195,
      "Ġstepped": 6196,
      "ĠPrince": 6197,
      "Ġchemical": 6198,
      "Actually": 6199,
      "MP": 6200,
      "lie": 6201,
      "picks": 6202,
      "Ġbark": 6203,
      "oned": 6204,
      "Ġgather": 6205,
      "amin": 6206,
      "ĠBi": 6207,
      "ĠBrian": 6208,
      "ĠHim": 6209,
      "ĠLu": 6210,
      "Ġboots": 6211,
      "ĠArk": 6212,
      "Ġmusical": 6213,
      "Ġinvited": 6214,
      "ĠTurk": 6215,
      "Ġweapon": 6216,
      "Ġencour": 6217,
      "ĠAccording": 6218,
      "En": 6219,
      "ĠHill": 6220,
      "usted": 6221,
      "OULD": 6222,
      "ĠYoung": 6223,
      "ointment": 6224,
      "Ġpattern": 6225,
      "iamond": 6226,
      "engu": 6227,
      "Ġbutterfly": 6228,
      "ĠSuper": 6229,
      "points": 6230,
      "\"?\"": 6231,
      "Ġdim": 6232,
      "Ġinvent": 6233,
      "ĠSultan": 6234,
      "ĠALL": 6235,
      "ĠCongress": 6236,
      "Ġlies": 6237,
      "Ġsuffe": 6238,
      "Ġhearing": 6239,
      "ĠYOUR": 6240,
      "Ġpoliceman": 6241,
      "Ġpropos": 6242,
      "Ġcandy": 6243,
      "ĠWentworth": 6244,
      "rondisse": 6245,
      "Cause": 6246,
      "krain": 6247,
      "Ġtied": 6248,
      "Ġfier": 6249,
      "Ġtoile": 6250,
      "Ġsaving": 6251,
      "ĠWolf": 6252,
      "nee": 6253,
      "Ġcurious": 6254,
      "Ġlearning": 6255,
      "Ġforgive": 6256,
      "Ġhonour": 6257,
      "ĠCenter": 6258,
      "--------------------------------": 6259,
      "ĠCanadian": 6260,
      "sque": 6261,
      "Ã±": 6262,
      "ĠâĻª": 6263,
      "Ġfal": 6264,
      "Ġhabit": 6265,
      "ĠBible": 6266,
      "ĠHon": 6267,
      "ĠFar": 6268,
      "ĠLife": 6269,
      "estival": 6270,
      "Ġchosen": 6271,
      "ANG": 6272,
      "Ġbitch": 6273,
      "igned": 6274,
      "Ġboxes": 6275,
      "Ġdrove": 6276,
      "Ġordinary": 6277,
      "Ġlifted": 6278,
      "Ġdefend": 6279,
      "Ġearnest": 6280,
      "pri": 6281,
      "Ġbones": 6282,
      "Ġyard": 6283,
      "Ġcash": 6284,
      "Ġlone": 6285,
      "ands": 6286,
      "Ġquack": 6287,
      "Ġgrate": 6288,
      "ĠVal": 6289,
      "Ġwarri": 6290,
      "ĠMission": 6291,
      "Ġclosely": 6292,
      "ĠAtl": 6293,
      "Ġsweetie": 6294,
      "Ġconcent": 6295,
      "ournal": 6296,
      "ĠMickey": 6297,
      "yo": 6298,
      "Ġfreed": 6299,
      "llen": 6300,
      "Ġpic": 6301,
      "Ġladder": 6302,
      "ette": 6303,
      "Ġrang": 6304,
      "Ġrushed": 6305,
      "Ġsociety": 6306,
      "ĠFanning": 6307,
      "Ġvent": 6308,
      "Ġbricks": 6309,
      "ipper": 6310,
      "ĠDavis": 6311,
      "Ġapproach": 6312,
      "scream": 6313,
      "Ġobserved": 6314,
      "Ġarrested": 6315,
      "HHH": 6316,
      "Â¶": 6317,
      "Ġpile": 6318,
      "Ġbeast": 6319,
      "Ġrank": 6320,
      "Ġrush": 6321,
      "ĠSomet": 6322,
      "ĠDa": 6323,
      "ĠFe": 6324,
      "ĠWood": 6325,
      "ĠRush": 6326,
      "Ġcomedy": 6327,
      "ĠOkay": 6328,
      "Ġfourteen": 6329,
      "Ġowner": 6330,
      "RIC": 6331,
      "Ġraise": 6332,
      "Ġaccepted": 6333,
      "Ġgalley": 6334,
      "Ġmaterial": 6335,
      "Ġweekend": 6336,
      "eta": 6337,
      "ĠCare": 6338,
      "elle": 6339,
      "ĠDen": 6340,
      "ability": 6341,
      "shouts": 6342,
      "Ġpulling": 6343,
      "Ġdarkness": 6344,
      "Ġtypes": 6345,
      "Ġrolling": 6346,
      "ĠSwed": 6347,
      "Michael": 6348,
      "Ġfired": 6349,
      "Ġlack": 6350,
      "ĠIll": 6351,
      "Ġhee": 6352,
      "ĠMia": 6353,
      "ĠSel": 6354,
      "ctors": 6355,
      "ĠOl": 6356,
      "eps": 6357,
      "hib": 6358,
      "Ġproced": 6359,
      "Ġchanging": 6360,
      "aspberry": 6361,
      "Ġlemme": 6362,
      "Her": 6363,
      "Ġ--": 6364,
      "Ġfacing": 6365,
      "Ġpages": 6366,
      "aring": 6367,
      "imme": 6368,
      "umps": 6369,
      "ĠWITH": 6370,
      "Ġarrang": 6371,
      "Ġquit": 6372,
      "bec": 6373,
      "Ġthroughout": 6374,
      "Ġbreaking": 6375,
      "ĠAlthough": 6376,
      "Ġacid": 6377,
      "Ġpicking": 6378,
      "ception": 6379,
      "Should": 6380,
      "Ġshooting": 6381,
      "Ġfailure": 6382,
      "ĠCentral": 6383,
      "Ġdoo": 6384,
      "Ġgained": 6385,
      "ĠTri": 6386,
      "Ġnope": 6387,
      "Ġshh": 6388,
      "ĠLong": 6389,
      "igan": 6390,
      "ivity": 6391,
      "Ġminor": 6392,
      "Ġhighly": 6393,
      "Ġcookie": 6394,
      "Ġreported": 6395,
      "Ġequip": 6396,
      "ĠOlympic": 6397,
      "Steve": 6398,
      "lers": 6399,
      "Ġtear": 6400,
      "Ġsen": 6401,
      "Ġcas": 6402,
      "Ġpushing": 6403,
      "ĠBoston": 6404,
      "ĠLight": 6405,
      "odes": 6406,
      "Ġbranc": 6407,
      "Ġguilty": 6408,
      "Ġowned": 6409,
      "ĠAnn": 6410,
      "Ġkidding": 6411,
      "Ġincident": 6412,
      "Ġcraft": 6413,
      "Ġdesigned": 6414,
      "Ġdocument": 6415,
      "Ġtoss": 6416,
      "Ġsem": 6417,
      "cho": 6418,
      "Ġbodies": 6419,
      "Ġeastern": 6420,
      "Ġgiant": 6421,
      "Ġtransport": 6422,
      "Ġcreate": 6423,
      "Ġintroduced": 6424,
      "ĠGraeme": 6425,
      "ĠCasson": 6426,
      "ĠPakistan": 6427,
      "Ġsplendid": 6428,
      "yr": 6429,
      "esides": 6430,
      "ĠMass": 6431,
      "alled": 6432,
      "ĠCross": 6433,
      "iece": 6434,
      "Ġupside": 6435,
      "rier": 6436,
      "emies": 6437,
      "Ġpron": 6438,
      "Ġhurts": 6439,
      "Think": 6440,
      "AA": 6441,
      "Cha": 6442,
      "Mad": 6443,
      "OB": 6444,
      "low": 6445,
      "Ġtough": 6446,
      "Ġcave": 6447,
      "Ġmap": 6448,
      "Ġfaster": 6449,
      "Ġpor": 6450,
      "Ġlord": 6451,
      "Ġnerv": 6452,
      "ĠSouthern": 6453,
      "ĠPan": 6454,
      "ĠPop": 6455,
      "ĠLike": 6456,
      "Ġsuck": 6457,
      "Nobody": 6458,
      "Ġcompos": 6459,
      "Ġcrim": 6460,
      "Whoa": 6461,
      "ĠPrime": 6462,
      "Ġbanana": 6463,
      "views": 6464,
      "Ġstrike": 6465,
      "Ġcompetition": 6466,
      "Ġadvantage": 6467,
      "Love": 6468,
      "bling": 6469,
      "lock": 6470,
      "Ġdiss": 6471,
      "anton": 6472,
      "Ġstring": 6473,
      "Ġbadly": 6474,
      "Ġmethod": 6475,
      "ĠPatty": 6476,
      "ropical": 6477,
      "Ġjacket": 6478,
      "Leave": 6479,
      "water": 6480,
      "Ġcitiz": 6481,
      "enced": 6482,
      "elled": 6483,
      "Ġconce": 6484,
      "Ġsmooth": 6485,
      "Ġcommunic": 6486,
      "Ġlaws": 6487,
      "Ġcircus": 6488,
      "ĠGreater": 6489,
      "ĠAustralian": 6490,
      "Ġmummie": 6491,
      "Ġtoilet": 6492,
      "AB": 6493,
      "GIN": 6494,
      "Sit": 6495,
      "UL": 6496,
      "mond": 6497,
      "pir": 6498,
      "rison": 6499,
      "Ġbone": 6500,
      "enger": 6501,
      "Ġnuts": 6502,
      "keys": 6503,
      "ĠRay": 6504,
      "Ġcovers": 6505,
      "uchi": 6506,
      "Ġsignal": 6507,
      "Ġdifficulty": 6508,
      "Ġmadam": 6509,
      "Ġinterrupts": 6510,
      "Ġelder": 6511,
      "TO": 6512,
      "Ġtournament": 6513,
      "happy": 6514,
      "Ġmile": 6515,
      "Ġfence": 6516,
      "umed": 6517,
      "ĠWhere": 6518,
      "Ġsprang": 6519,
      "Ġfamilies": 6520,
      "Ġrealized": 6521,
      "Ġtribes": 6522,
      "ĠThree": 6523,
      "Ġrecords": 6524,
      "Ġprogramme": 6525,
      "Ġactivity": 6526,
      "Ġhammer": 6527,
      "KE": 6528,
      "KK": 6529,
      "car": 6530,
      "Ġx": 6531,
      "Ġdump": 6532,
      "icop": 6533,
      "Ġrise": 6534,
      "ĠSpr": 6535,
      "ĠBon": 6536,
      "Ġliqu": 6537,
      "iffe": 6538,
      "ĠWestern": 6539,
      "ĠList": 6540,
      "inda": 6541,
      "ĠUkrain": 6542,
      "ĠJohnson": 6543,
      "Ġrestaur": 6544,
      "Ġdivor": 6545,
      "ĠAgnes": 6546,
      "Tw": 6547,
      "Ġsang": 6548,
      "Ġpoo": 6549,
      "ĠIm": 6550,
      "lyn": 6551,
      "ĠHor": 6552,
      "Ġcanton": 6553,
      "Ġsav": 6554,
      "Ġseek": 6555,
      "ĠRod": 6556,
      "Ġtruly": 6557,
      "Ġuniversity": 6558,
      "Ġresour": 6559,
      "Ġdrown": 6560,
      "Ġincred": 6561,
      "Ġapartment": 6562,
      "Ġhasta": 6563,
      "Ġsuffered": 6564,
      "Huh": 6565,
      "MC": 6566,
      "TS": 6567,
      "affe": 6568,
      "Ġ..": 6569,
      "lection": 6570,
      "ĠThan": 6571,
      "Ġstol": 6572,
      "ĠWal": 6573,
      "Ġsport": 6574,
      "ĠKim": 6575,
      "Ġeats": 6576,
      "Ġlistened": 6577,
      "Stay": 6578,
      "alds": 6579,
      "engers": 6580,
      "Ġbesides": 6581,
      "Ġpillow": 6582,
      "ĠOxford": 6583,
      "bury": 6584,
      "hus": 6585,
      "erable": 6586,
      "Ġcough": 6587,
      "ormed": 6588,
      "Ġpadd": 6589,
      "Ġimit": 6590,
      "mpat": 6591,
      "Ġprotest": 6592,
      "ĠTrans": 6593,
      "ĠTeam": 6594,
      "ĠRobin": 6595,
      "Ġdrugs": 6596,
      "Ġapolog": 6597,
      "HL": 6598,
      "lim": 6599,
      "Ġwra": 6600,
      "Ġwounded": 6601,
      "Ġsevere": 6602,
      "Ġupper": 6603,
      "ĠDE": 6604,
      "ĠLie": 6605,
      "Ġcommer": 6606,
      "ĠVer": 6607,
      "Ġcris": 6608,
      "Ġsurely": 6609,
      "Ġharder": 6610,
      "Ġsixteen": 6611,
      "Ġhearts": 6612,
      "Ġcloth": 6613,
      "ĠCommittee": 6614,
      "ĠMexican": 6615,
      "Ġpowder": 6616,
      "Ġcredit": 6617,
      "American": 6618,
      ",]": 6619,
      "eks": 6620,
      "Ġouch": 6621,
      "Ġaid": 6622,
      "reck": 6623,
      "ĠEric": 6624,
      "Ġspo": 6625,
      "Ġspare": 6626,
      "aren": 6627,
      "Ġsomethin": 6628,
      "Ġintended": 6629,
      "Ġcrossed": 6630,
      "inois": 6631,
      "ĠRepublican": 6632,
      "kisses": 6633,
      "ĠSoviet": 6634,
      "JUD": 6635,
      "bel": 6636,
      "Ġtal": 6637,
      "Ġborder": 6638,
      "Ġpup": 6639,
      "Ġhug": 6640,
      "Ġholes": 6641,
      "ĠCath": 6642,
      "ĠFore": 6643,
      "ulate": 6644,
      "agu": 6645,
      "Ġsmiles": 6646,
      "Ġaccess": 6647,
      "ĠOnce": 6648,
      "Ġdelay": 6649,
      "ĠAbout": 6650,
      "ealous": 6651,
      "Ġequal": 6652,
      "Ġprincess": 6653,
      "lam": 6654,
      "ture": 6655,
      "Ġ\"~": 6656,
      "Ġast": 6657,
      ".\"]": 6658,
      "Ġwaves": 6659,
      "Ġgay": 6660,
      "Ġrising": 6661,
      "sell": 6662,
      "ĠCON": 6663,
      "ĠPen": 6664,
      "wey": 6665,
      "Ġours": 6666,
      "Ġpoison": 6667,
      "Ġdishes": 6668,
      "Ġleague": 6669,
      "Ġseriously": 6670,
      "Ġstandard": 6671,
      "Ġrecorder": 6672,
      "Ġrecording": 6673,
      "ĠWilliams": 6674,
      "Ġcaptured": 6675,
      "Ġsettlement": 6676,
      "Ġfeatures": 6677,
      "Ġequipment": 6678,
      "Ġbranches": 6679,
      "ban": 6680,
      "Ġaunt": 6681,
      "Ġbounc": 6682,
      "ĠServ": 6683,
      "Ġanti": 6684,
      "ĠLater": 6685,
      "Ġchips": 6686,
      "Ġtrial": 6687,
      "Ġsending": 6688,
      "Ġlocked": 6689,
      "Ġsplit": 6690,
      "Ġslept": 6691,
      "Ġindustry": 6692,
      "gi": 6693,
      "Ġcongress": 6694,
      "Ġhen": 6695,
      "Ġrhy": 6696,
      "ĠSara": 6697,
      "ĠBilly": 6698,
      "ĠHolly": 6699,
      "agn": 6700,
      "Ġunf": 6701,
      "Ġunus": 6702,
      "Ġactual": 6703,
      "Ġappointed": 6704,
      "ĠClub": 6705,
      "Ġtraffic": 6706,
      "Ġavoid": 6707,
      "ĠDaniel": 6708,
      "Ġproposed": 6709,
      "Ġbalance": 6710,
      "Bet": 6711,
      "Since": 6712,
      "met": 6713,
      "mad": 6714,
      "ras": 6715,
      "||": 6716,
      "Ġrope": 6717,
      "sters": 6718,
      "Ġconsequ": 6719,
      "Ġbrings": 6720,
      "reeks": 6721,
      "ĠKen": 6722,
      "Ġkindly": 6723,
      "Ġsword": 6724,
      "Ġpresently": 6725,
      "aze": 6726,
      "Ġkilling": 6727,
      "Ġefforts": 6728,
      "ĠKorea": 6729,
      "ĠUrsula": 6730,
      "Ġstreets": 6731,
      "Char": 6732,
      "Ġaston": 6733,
      "Ġfoll": 6734,
      "Ġmeas": 6735,
      "Ġshed": 6736,
      "ĠPapa": 6737,
      "ĠLove": 6738,
      "Ġchain": 6739,
      "ĠDewey": 6740,
      "Ġtrains": 6741,
      "ĠHarris": 6742,
      "Ġbuildings": 6743,
      "Ġwinning": 6744,
      "Ġproduction": 6745,
      "Ġcandid": 6746,
      "Ġcompanies": 6747,
      "ois": 6748,
      "Ġborrow": 6749,
      "Ġdwell": 6750,
      "Ġnic": 6751,
      "Ġhidden": 6752,
      "ali": 6753,
      "ĠSP": 6754,
      "ĠFire": 6755,
      "lfr": 6756,
      "Ġlets": 6757,
      "addressed": 6758,
      "Ġgreatly": 6759,
      "ĠArthur": 6760,
      "Ġrelax": 6761,
      "Ġsigns": 6762,
      "Ġplanned": 6763,
      "Ġlads": 6764,
      "ĠConf": 6765,
      "Ġmixed": 6766,
      "Ġaffair": 6767,
      "ĠIllinois": 6768,
      "**": 6769,
      "intend": 6770,
      "Ġtheory": 6771,
      "Ġcot": 6772,
      "Ġwashed": 6773,
      "ĠShan": 6774,
      "ĠApp": 6775,
      "eable": 6776,
      "ĠCons": 6777,
      "ĠJumbo": 6778,
      "ĠLwww": 6779,
      "ĠUp": 6780,
      "Ġenemies": 6781,
      "Ġcrown": 6782,
      "ĠAndy": 6783,
      "Ġrooms": 6784,
      "fecture": 6785,
      "Ġrecorded": 6786,
      "Ġkissed": 6787,
      "Ġclimbing": 6788,
      "Everyone": 6789,
      "ĠRepresent": 6790,
      "Ġtreated": 6791,
      "Ġnominated": 6792,
      "Ġsource": 6793,
      "Ġappreciate": 6794,
      "IG": 6795,
      "rin": 6796,
      "Ġtent": 6797,
      "Ġcalc": 6798,
      "onia": 6799,
      "Ġath": 6800,
      "Ġwhee": 6801,
      "rael": 6802,
      "ialect": 6803,
      "Ġhousehold": 6804,
      "Ġresist": 6805,
      "ĠAmericans": 6806,
      "Ġdeliver": 6807,
      "ĠPerhaps": 6808,
      "Ġflew": 6809,
      "Ġdistributed": 6810,
      "ĠAssociation": 6811,
      "lfriend": 6812,
      "zer": 6813,
      "Ġhockey": 6814,
      "ĠBre": 6815,
      "Ġlibr": 6816,
      "ĠHu": 6817,
      "ĠPooh": 6818,
      "quar": 6819,
      "Ġspeaks": 6820,
      "Ġboot": 6821,
      "ARD": 6822,
      "Ġuns": 6823,
      "Ġprecious": 6824,
      "Ġkeys": 6825,
      "ailed": 6826,
      "Ġrolls": 6827,
      "Ġmajority": 6828,
      "Ġcompanions": 6829,
      "overy": 6830,
      "ĠKNOW": 6831,
      "Ġchannel": 6832,
      "Ġdeser": 6833,
      "ĠAnother": 6834,
      "Ġwondered": 6835,
      "Ġproduce": 6836,
      "Ġbriefly": 6837,
      "Ġrapidly": 6838,
      "Ġlonely": 6839,
      "Make": 6840,
      "Move": 6841,
      "ige": 6842,
      "Ġwire": 6843,
      "stead": 6844,
      "ĠBook": 6845,
      "ĠHot": 6846,
      "Ġjealous": 6847,
      "Ġsofa": 6848,
      "ĠPenn": 6849,
      "ella": 6850,
      "Ġleans": 6851,
      "Ġpregn": 6852,
      "Ġslipped": 6853,
      "Ġrecom": 6854,
      "Ġhandsome": 6855,
      "Ġleaders": 6856,
      "Ġhoping": 6857,
      "Ġcritic": 6858,
      "RY": 6859,
      "Sc": 6860,
      "five": 6861,
      "Ġinha": 6862,
      "Ġstern": 6863,
      "ĠSH": 6864,
      "Ġsuffic": 6865,
      "Ġunfortun": 6866,
      "Ġguest": 6867,
      "Ġbecomes": 6868,
      "Ġsquir": 6869,
      "ippi": 6870,
      "ĠElizabeth": 6871,
      "Ġdivision": 6872,
      "Anyway": 6873,
      "Ġvictory": 6874,
      "playing": 6875,
      "ĠBuild": 6876,
      "ĠArkansas": 6877,
      "cod": 6878,
      "Å«": 6879,
      "Ġbent": 6880,
      "Ġmike": 6881,
      "Ġpension": 6882,
      "Ġpiano": 6883,
      "Ġbears": 6884,
      "ĠAp": 6885,
      "uma": 6886,
      "ĠFair": 6887,
      "olph": 6888,
      "Ġgrant": 6889,
      "rences": 6890,
      "neath": 6891,
      "Ġpointed": 6892,
      "Ġphil": 6893,
      "atively": 6894,
      "Ġmedal": 6895,
      "Ġburned": 6896,
      "Ġprisoner": 6897,
      "ĠPortug": 6898,
      "ĠCompany": 6899,
      "ĠGabriella": 6900,
      "bour": 6901,
      "long": 6902,
      "press": 6903,
      "who": 6904,
      "Ġdish": 6905,
      "Ġfed": 6906,
      "Ġhipp": 6907,
      "ador": 6908,
      "ĠAB": 6909,
      "ĠHannah": 6910,
      "Ġknight": 6911,
      "ĠDet": 6912,
      "ĠJerry": 6913,
      "hia": 6914,
      "iana": 6915,
      "Ġcolour": 6916,
      "ibi": 6917,
      "Ġjumping": 6918,
      "Ġoriginally": 6919,
      "vocalizes": 6920,
      "Ġaltogether": 6921,
      ")\"": 6922,
      "FAD": 6923,
      "bage": 6924,
      "Ġdialect": 6925,
      "Ġpity": 6926,
      "Ġgimme": 6927,
      "stery": 6928,
      "ĠBang": 6929,
      "cend": 6930,
      "ellow": 6931,
      "Ġmyster": 6932,
      "Ġoldest": 6933,
      "ĠMississ": 6934,
      "Ġsympat": 6935,
      "Ġgrandmother": 6936,
      "Ġtyp": 6937,
      "Ġattacked": 6938,
      "Ġemergency": 6939,
      "Ġindependent": 6940,
      "ĠRolan": 6941,
      "NO": 6942,
      "Watch": 6943,
      "Ġoop": 6944,
      "Ġee": 6945,
      "alph": 6946,
      "elia": 6947,
      "uddle": 6948,
      "Ġtender": 6949,
      "Ġdesert": 6950,
      "Ġdistinct": 6951,
      "Ġawake": 6952,
      "Looks": 6953,
      "Ġsteady": 6954,
      "Ġchecked": 6955,
      "Ġdivided": 6956,
      "Ġorganization": 6957,
      "April": 6958,
      "Ġtiss": 6959,
      "inn": 6960,
      "ancial": 6961,
      "Ġseats": 6962,
      "Ġdemon": 6963,
      "Ġsaus": 6964,
      "Ġplus": 6965,
      "Ġagre": 6966,
      "ĠUnder": 6967,
      "lings": 6968,
      "Ġcontent": 6969,
      "Ġbreast": 6970,
      "eaking": 6971,
      "gery": 6972,
      "Ġtransl": 6973,
      "Ġcreature": 6974,
      "Ġexperien": 6975,
      "ĠAdams": 6976,
      "Ġmanagement": 6977,
      "Ġculture": 6978,
      "ĠDivision": 6979,
      "olarship": 6980,
      "Ġexercise": 6981,
      "ties": 6982,
      "Ġpushes": 6983,
      "Ġthorough": 6984,
      "uted": 6985,
      "ĠLand": 6986,
      "Ġwhenever": 6987,
      "Ġqueen": 6988,
      "ĠKelly": 6989,
      "Ġblame": 6990,
      "ancing": 6991,
      "hetti": 6992,
      "Ġshadow": 6993,
      "Remember": 6994,
      "Ġescaped": 6995,
      "Ġnervous": 6996,
      "Ph": 6997,
      "ym": 6998,
      "Ġbunch": 6999,
      "Ġdea": 7000,
      "Ġlit": 7001,
      "Ġlamb": 7002,
      "Ġbeer": 7003,
      "Ġbelly": 7004,
      "ĠCam": 7005,
      "ĠNick": 7006,
      "ĠOver": 7007,
      "Ġbetray": 7008,
      "Ġhelicop": 7009,
      "Ġsuppl": 7010,
      "Ġsorts": 7011,
      "Ġconfidence": 7012,
      "Ġstudio": 7013,
      "Ġexpensive": 7014,
      "Ġfields": 7015,
      "Ġpigs": 7016,
      "Ġmammy": 7017,
      "Ġprofessor": 7018,
      "Ġsatisfied": 7019,
      "Ġpirates": 7020,
      "Ġinquired": 7021,
      "Ġproducer": 7022,
      "Ġsurround": 7023,
      "Ġevidently": 7024,
      "Ġsisters": 7025,
      "ĠFaith": 7026,
      "ĠMississippi": 7027,
      "Sm": 7028,
      "gues": 7029,
      "iture": 7030,
      "Ġcouch": 7031,
      "Ġdiamond": 7032,
      "Ġlin": 7033,
      "Ġrifle": 7034,
      "Ġsequ": 7035,
      "Ġsoap": 7036,
      "unning": 7037,
      "Ġbrand": 7038,
      "Ġuncom": 7039,
      "ĠStud": 7040,
      "ileen": 7041,
      "ĠYear": 7042,
      "Ġbitter": 7043,
      "Ġsetting": 7044,
      "OUT": 7045,
      "Ġrelief": 7046,
      "standing": 7047,
      "umbled": 7048,
      "Ġicecream": 7049,
      "ĠGovernment": 7050,
      "bal": 7051,
      "Ġmig": 7052,
      "icide": 7053,
      "ĠTig": 7054,
      "ĠSil": 7055,
      "ĠSav": 7056,
      "uries": 7057,
      "Ġjam": 7058,
      "ĠWed": 7059,
      "Ġgrace": 7060,
      "onder": 7061,
      "Ġamend": 7062,
      "gging": 7063,
      "Ġdecor": 7064,
      "aska": 7065,
      "Ġpresented": 7066,
      "Ġmarked": 7067,
      "Ġcontroll": 7068,
      "Ġrequired": 7069,
      "moans": 7070,
      "Ġdelighted": 7071,
      "Ġpersons": 7072,
      "Ġadventure": 7073,
      "Dam": 7074,
      "Yep": 7075,
      "Ġowe": 7076,
      "Ġbon": 7077,
      "Ġcents": 7078,
      "Ġpengu": 7079,
      "Ġrear": 7080,
      "Ġnoisy": 7081,
      "ĠPers": 7082,
      "elcome": 7083,
      "ĠRalph": 7084,
      "Ġspite": 7085,
      "Ġproved": 7086,
      "Ġblowing": 7087,
      "Ġmoments": 7088,
      "Ġlessons": 7089,
      "Ġglasses": 7090,
      "Ġrepresented": 7091,
      "stitute": 7092,
      "Ġpirate": 7093,
      "ĠLatin": 7094,
      "LO": 7095,
      "zing": 7096,
      "ĠIran": 7097,
      "Ġstove": 7098,
      "Ġsooner": 7099,
      "Ġprior": 7100,
      "Ġpupp": 7101,
      "Ġheavily": 7102,
      "ĠJoey": 7103,
      "Ġpiggy": 7104,
      "Ġincreased": 7105,
      "Glory": 7106,
      "AIN": 7107,
      "Ġwise": 7108,
      "Ġsorrow": 7109,
      "aned": 7110,
      "adium": 7111,
      "ĠMajesty": 7112,
      "Ġgosh": 7113,
      "ĠJan": 7114,
      "Ġconqu": 7115,
      "Ġboom": 7116,
      "oving": 7117,
      "peror": 7118,
      "Ġflu": 7119,
      "Ġunderneath": 7120,
      "Ġapples": 7121,
      "Ġcontest": 7122,
      "ĠAlice": 7123,
      "Ġlegal": 7124,
      "Ġextent": 7125,
      "Ġadvanced": 7126,
      "ĠMusic": 7127,
      "Ġseventy": 7128,
      "orkshire": 7129,
      "stein": 7130,
      "Ġfarther": 7131,
      "Hurry": 7132,
      "case": 7133,
      "gb": 7134,
      "yard": 7135,
      "refers": 7136,
      "hamed": 7137,
      "ĠGirl": 7138,
      "ISS": 7139,
      "IST": 7140,
      "onsense": 7141,
      "Ġswall": 7142,
      "Ġswift": 7143,
      "ĠAnna": 7144,
      "LEA": 7145,
      "Everybody": 7146,
      "Ġregarded": 7147,
      "Sometimes": 7148,
      "Ġstruggle": 7149,
      "Ġgiraffe": 7150,
      "\"]\"": 7151,
      "Today": 7152,
      "bird": 7153,
      "eding": 7154,
      "ĠShar": 7155,
      "eau": 7156,
      "acker": 7157,
      "ĠGil": 7158,
      "ĠRad": 7159,
      "Ġclient": 7160,
      "Ġarmed": 7161,
      "Ġcheeks": 7162,
      "Ġpassion": 7163,
      "Ġpicnic": 7164,
      "Su": 7165,
      "Ġben": 7166,
      "Ġfate": 7167,
      "Ġpure": 7168,
      "Ġlosing": 7169,
      "Ġren": 7170,
      "Ġrac": 7171,
      "lying": 7172,
      "Ġalarm": 7173,
      "ATION": 7174,
      "Ġworn": 7175,
      "Ġrefused": 7176,
      "ĠIsrael": 7177,
      "Ġbelongs": 7178,
      "Ġcollection": 7179,
      "IFA": 7180,
      "Ġhesit": 7181,
      "bly": 7182,
      "zo": 7183,
      "Ġdu": 7184,
      "esh": 7185,
      "ĠIII": 7186,
      "Ġmechan": 7187,
      "Ġcannon": 7188,
      "Ġsheet": 7189,
      "ĠParliament": 7190,
      "istry": 7191,
      "ĠNorthern": 7192,
      "Ġvain": 7193,
      "Ġconclud": 7194,
      "Ġgoodbye": 7195,
      "Ġunit": 7196,
      "Ġremains": 7197,
      "ĠYorkshire": 7198,
      "Ġrescue": 7199,
      "Ġsymb": 7200,
      "Ġgrandfather": 7201,
      "ĠWillie": 7202,
      "Ġforeign": 7203,
      "THAT": 7204,
      "Ġoperation": 7205,
      "Anything": 7206,
      "nesday": 7207,
      "Ġresponsibility": 7208,
      "Ġcustom": 7209,
      "Ġreligion": 7210,
      "ĠSenate": 7211,
      "Ġscratch": 7212,
      "ĠEmpire": 7213,
      "ds": 7214,
      "Ġ{": 7215,
      "Ġnuclear": 7216,
      "asant": 7217,
      "Ġjournal": 7218,
      "aine": 7219,
      "ĠPorter": 7220,
      "ĠDun": 7221,
      "ouri": 7222,
      "gend": 7223,
      "ĠJr": 7224,
      "ĠFox": 7225,
      "ĠNic": 7226,
      "Ġroy": 7227,
      "Ġsche": 7228,
      "Ġcompar": 7229,
      "Ġbelt": 7230,
      "iverse": 7231,
      "Ġinstance": 7232,
      "Ġmarks": 7233,
      "Ġpotatoes": 7234,
      "Ġvillages": 7235,
      "Ġaccompl": 7236,
      "Ġreferred": 7237,
      "Car": 7238,
      "rels": 7239,
      "erg": 7240,
      "Ġbord": 7241,
      "Ġmeasure": 7242,
      "ĠHome": 7243,
      "ĠFIFA": 7244,
      "Whatever": 7245,
      "Ġchamp": 7246,
      "ĠAsia": 7247,
      "ĠEddie": 7248,
      "Before": 7249,
      "Ġstudent": 7250,
      "blows": 7251,
      "Ġclouds": 7252,
      "Ġpaused": 7253,
      "ĠPostman": 7254,
      "Ġneighborhood": 7255,
      "Ġfollows": 7256,
      "Ġlibrary": 7257,
      "dro": 7258,
      "Ġtub": 7259,
      "Ġsin": 7260,
      "Ġding": 7261,
      "oni": 7262,
      "Ġintern": 7263,
      "ayne": 7264,
      "ĠAng": 7265,
      "ĠPac": 7266,
      "artment": 7267,
      "Ġbold": 7268,
      "oyal": 7269,
      "Ġpurcha": 7270,
      "Ġfifth": 7271,
      "Ġadvance": 7272,
      "ĠMcGlory": 7273,
      "idae": 7274,
      "Ġugly": 7275,
      "rondissement": 7276,
      "sa": 7277,
      "some": 7278,
      "syl": 7279,
      "Ġcode": 7280,
      "icate": 7281,
      "ĠTor": 7282,
      "ĠHart": 7283,
      "ĠEv": 7284,
      "Ġspect": 7285,
      "hess": 7286,
      "ĠGroup": 7287,
      "Ġsubst": 7288,
      "Ġwinner": 7289,
      "Ġengines": 7290,
      "Ġcleaning": 7291,
      "Ġamongst": 7292,
      "Someone": 7293,
      "Ġspirits": 7294,
      "Ġcrocod": 7295,
      "Ġstolen": 7296,
      "ĠCatholic": 7297,
      "BE": 7298,
      "Ind": 7299,
      "__": 7300,
      "wyn": 7301,
      "Ġmole": 7302,
      "Ġpitch": 7303,
      "Ġhut": 7304,
      "keep": 7305,
      "Ġrice": 7306,
      "Ġstool": 7307,
      "ĠAC": 7308,
      "Ġsale": 7309,
      "Ġgotten": 7310,
      "ĠOut": 7311,
      "Ġuseta": 7312,
      "Ġflash": 7313,
      "ĠStanton": 7314,
      "Ġleaf": 7315,
      "Ġchew": 7316,
      "Ġincome": 7317,
      "which": 7318,
      "Ġvolume": 7319,
      "Ġromantic": 7320,
      "Ġentrance": 7321,
      "iable": 7322,
      "pro": 7323,
      "rough": 7324,
      "Ġwitch": 7325,
      "ĠBas": 7326,
      "unting": 7327,
      "ĠLilian": 7328,
      "ĠEach": 7329,
      "Ġvast": 7330,
      "issa": 7331,
      "Ġworkers": 7332,
      "Ġbush": 7333,
      "Ġtravell": 7334,
      "Ġstuffed": 7335,
      "ursday": 7336,
      "Ġfleet": 7337,
      "Ġfolk": 7338,
      "Grand": 7339,
      "Ġeagerly": 7340,
      "Ġimprove": 7341,
      "\").": 7342,
      "Ġbast": 7343,
      "itan": 7344,
      "Ġcig": 7345,
      "leg": 7346,
      "Ġwealth": 7347,
      "acle": 7348,
      "ira": 7349,
      "ĠBaker": 7350,
      "rose": 7351,
      "umm": 7352,
      "umes": 7353,
      "ĠJake": 7354,
      "ĠFord": 7355,
      "icket": 7356,
      "inton": 7357,
      "Ġchums": 7358,
      "Ġfinds": 7359,
      "Ġsalt": 7360,
      "ĠAuntie": 7361,
      "ĠMaisy": 7362,
      "incol": 7363,
      "Ġsuspic": 7364,
      "Ġsucceeded": 7365,
      "Ġbuttons": 7366,
      "ĠDisney": 7367,
      "Ġgrateful": 7368,
      "iation": 7369,
      "wa": 7370,
      "Ġocean": 7371,
      "Ġcows": 7372,
      "Ġcounter": 7373,
      "Ġtoe": 7374,
      "Ġlat": 7375,
      "asa": 7376,
      "Ġhunt": 7377,
      "Ġrug": 7378,
      "stone": 7379,
      "ĠHockey": 7380,
      "ieve": 7381,
      "Ġcomr": 7382,
      "Ġpartly": 7383,
      "Ġparties": 7384,
      "Ġcheap": 7385,
      "ĠAsh": 7386,
      "Ġsleepy": 7387,
      "Ġsteal": 7388,
      "Ġstronger": 7389,
      "Ġthousands": 7390,
      "Ġappropri": 7391,
      "Ġticket": 7392,
      "Ġshark": 7393,
      "Ġhoped": 7394,
      "Ġbasically": 7395,
      "whispering": 7396,
      "Ġpersu": 7397,
      "Ġreligious": 7398,
      "Aha": 7399,
      "Help": 7400,
      "OF": 7401,
      "Try": 7402,
      "Ġay": 7403,
      "Ġsession": 7404,
      "atre": 7405,
      "Ġwasher": 7406,
      "ĠAileen": 7407,
      "Ġnotes": 7408,
      "Ġjew": 7409,
      "Ġaltern": 7410,
      "ĠEXP": 7411,
      "hmm": 7412,
      "Ġconsult": 7413,
      "Ġlanded": 7414,
      "Ġducks": 7415,
      "Ġdaily": 7416,
      "Ġinnocent": 7417,
      "Ġinhabit": 7418,
      "iar": 7419,
      "jack": 7420,
      "nor": 7421,
      "tt": 7422,
      "turn": 7423,
      "iches": 7424,
      "Ġrust": 7425,
      "amps": 7426,
      "ĠSol": 7427,
      "ĠCa": 7428,
      "Ġsock": 7429,
      "ĠRome": 7430,
      "Ġspark": 7431,
      "Ġletting": 7432,
      "Ġshaking": 7433,
      "Ġcontribut": 7434,
      "Ġslip": 7435,
      "Ġminister": 7436,
      "Ġtermin": 7437,
      "Ġconditions": 7438,
      "Ġraining": 7439,
      "Ġeffects": 7440,
      "Ġprotection": 7441,
      "Ġsuffer": 7442,
      "Ġwhistle": 7443,
      "Ġterritory": 7444,
      "Ġfalse": 7445,
      "Ġunusual": 7446,
      "Nat": 7447,
      "bar": 7448,
      "bag": 7449,
      "give": 7450,
      "hta": 7451,
      "ingle": 7452,
      "ĠSC": 7453,
      "ĠARE": 7454,
      "Ġpean": 7455,
      "Ġguide": 7456,
      "azz": 7457,
      "OUN": 7458,
      "Ġpassengers": 7459,
      "ennes": 7460,
      "Ġcompleted": 7461,
      "Ġspending": 7462,
      "Ġadmit": 7463,
      "Ġtracks": 7464,
      "Has": 7465,
      "corn": 7466,
      "Ġwip": 7467,
      "oubles": 7468,
      "ĠCOM": 7469,
      "ĠBoth": 7470,
      "ĠHind": 7471,
      "ĠLola": 7472,
      "ĠNan": 7473,
      "Ġhanded": 7474,
      "ĠInter": 7475,
      "ĠStar": 7476,
      "Ġchose": 7477,
      "ĠVis": 7478,
      "Ġrecent": 7479,
      "Ġdeserve": 7480,
      "okes": 7481,
      "Ġloving": 7482,
      "Ġannoy": 7483,
      "burgh": 7484,
      "Ġgirlfriend": 7485,
      "ĠBaby": 7486,
      "Ġpermission": 7487,
      "writer": 7488,
      "ĠHayden": 7489,
      "Ġarranged": 7490,
      "ez": 7491,
      "Â°": 7492,
      "Ġsings": 7493,
      "Ġmood": 7494,
      "Ġpowers": 7495,
      "Ġna": 7496,
      "ĠAyl": 7497,
      "ĠDu": 7498,
      "Ġchop": 7499,
      "Ġphr": 7500,
      "Ġcauses": 7501,
      "Ġdriven": 7502,
      "Ġlately": 7503,
      "Ġmurm": 7504,
      "Ġestim": 7505,
      "Ġselling": 7506,
      "ophie": 7507,
      "WHAT": 7508,
      "screams": 7509,
      "Ġscheme": 7510,
      "Again": 7511,
      "IES": 7512,
      "zed": 7513,
      "anks": 7514,
      "ĠMich": 7515,
      "ĠSee": 7516,
      "ĠHave": 7517,
      "ĠDi": 7518,
      "ĠDeb": 7519,
      "ĠOur": 7520,
      "Ġexha": 7521,
      "osely": 7522,
      "Ġappears": 7523,
      "Ġsla": 7524,
      "Ġcounties": 7525,
      "Ġnicely": 7526,
      "Ġelev": 7527,
      "Mmm": 7528,
      "ĠClar": 7529,
      "Ġexplan": 7530,
      "Ġservants": 7531,
      "Ġmedia": 7532,
      "Ġreports": 7533,
      "ĠJackson": 7534,
      "Ġfortun": 7535,
      "Ġsuffering": 7536,
      "ĠCarolina": 7537,
      "Ġdreadful": 7538,
      "ĠAylmer": 7539,
      "ev": 7540,
      "uing": 7541,
      "Ġwings": 7542,
      "idays": 7543,
      "Ġstole": 7544,
      "ĠBed": 7545,
      "Ġashamed": 7546,
      "ĠOUT": 7547,
      "Ġconver": 7548,
      "ĠKenn": 7549,
      "angers": 7550,
      "icted": 7551,
      "Ġcontain": 7552,
      "Ġahhah": 7553,
      "Ġregret": 7554,
      "Ġfoods": 7555,
      "Ġdisappear": 7556,
      "Ġlimited": 7557,
      "ĠBatala": 7558,
      "AKE": 7559,
      "ĠGolden": 7560,
      "Ġachieve": 7561,
      "ĠBrazil": 7562,
      "incoln": 7563,
      "Abs": 7564,
      "Ed": 7565,
      "erous": 7566,
      "ĠSax": 7567,
      "ĠCont": 7568,
      "urg": 7569,
      "Ġframe": 7570,
      "Ġsauce": 7571,
      "Ġspr": 7572,
      "Ġgray": 7573,
      "Ġaffection": 7574,
      "hedral": 7575,
      "Ġune": 7576,
      "Ġwarning": 7577,
      "Ġexplos": 7578,
      "Ġillness": 7579,
      "Ġdisappointed": 7580,
      "Ġconnection": 7581,
      "arrass": 7582,
      "Ġphysical": 7583,
      "RRR": 7584,
      "ĠScotland": 7585,
      "ni": 7586,
      "Äģ": 7587,
      "Ġwo": 7588,
      "Ġnav": 7589,
      "ĠSub": 7590,
      "ĠAD": 7591,
      "ĠCAN": 7592,
      "Ġjoint": 7593,
      "umper": 7594,
      "ĠFamily": 7595,
      "Ġability": 7596,
      "aki": 7597,
      "emic": 7598,
      "Ġpride": 7599,
      "Ġwaters": 7600,
      "Ġnights": 7601,
      "ahul": 7602,
      "sname": 7603,
      "JJJ": 7604,
      "cles": 7605,
      "py": 7606,
      "Ġtin": 7607,
      "isl": 7608,
      "Ġfits": 7609,
      "Ġlamp": 7610,
      "Ġanal": 7611,
      "ĠCooper": 7612,
      "ĠDire": 7613,
      "ĠWall": 7614,
      "resp": 7615,
      "hio": 7616,
      "ĠMissouri": 7617,
      "ethro": 7618,
      "ĠTommy": 7619,
      "ĠGeography": 7620,
      "Ġloft": 7621,
      "vania": 7622,
      "Ġrevolution": 7623,
      "ĠMiddle": 7624,
      "ĠIrish": 7625,
      "Ġplatform": 7626,
      "Ġobliged": 7627,
      "Damn": 7628,
      "AH": 7629,
      "VID": 7630,
      "vy": 7631,
      "hell": 7632,
      "Ġbay": 7633,
      "Ġfederal": 7634,
      "iculous": 7635,
      "usic": 7636,
      "ĠSpe": 7637,
      "ĠJon": 7638,
      "Ġaband": 7639,
      "berries": 7640,
      "Ġpeep": 7641,
      "Ġunable": 7642,
      "Ġlanding": 7643,
      "uesday": 7644,
      "umbling": 7645,
      "Ġrolled": 7646,
      "Ġstarring": 7647,
      "Ġsales": 7648,
      "Ġbasis": 7649,
      "Ġpresidential": 7650,
      "ĠBertha": 7651,
      "Ġfocus": 7652,
      "Ġextremely": 7653,
      "Ġsacr": 7654,
      "ĠTurkish": 7655,
      "mission": 7656,
      "uan": 7657,
      "Ġtank": 7658,
      "Ġlink": 7659,
      "Ġwhoo": 7660,
      "unior": 7661,
      "istics": 7662,
      "orden": 7663,
      "Ġscary": 7664,
      "Ġdrag": 7665,
      "ĠTrump": 7666,
      "Ġprograms": 7667,
      "ĠLawrence": 7668,
      "Ġstroke": 7669,
      "ĠPacific": 7670,
      "sylvania": 7671,
      "'...\"": 7672,
      "DER": 7673,
      "Father": 7674,
      "Ġdom": 7675,
      "Ġnest": 7676,
      "Ġincl": 7677,
      "Ġrot": 7678,
      "amma": 7679,
      "ĠMars": 7680,
      "ĠCur": 7681,
      "ript": 7682,
      "osa": 7683,
      "aka": 7684,
      "aghetti": 7685,
      "alking": 7686,
      "avid": 7687,
      "Ġflood": 7688,
      "Ġpointing": 7689,
      "Ġbeds": 7690,
      "Ġconscious": 7691,
      "Ġwooden": 7692,
      "Ġrubber": 7693,
      "Ġapplic": 7694,
      "Ġoccupied": 7695,
      "Ġtidy": 7696,
      "BUT": 7697,
      "Te": 7698,
      "Ġcakes": 7699,
      "Ġpipe": 7700,
      "ati": 7701,
      "Ġthirst": 7702,
      "ĠGord": 7703,
      "ĠLower": 7704,
      "ĠNet": 7705,
      "Ġsched": 7706,
      "hens": 7707,
      "Ġcontains": 7708,
      "Ġtreasure": 7709,
      "Ġsystems": 7710,
      "Ġadmir": 7711,
      "whines": 7712,
      "Ġtunnel": 7713,
      "ĠCampbell": 7714,
      "GG": 7715,
      "Open": 7716,
      "Ġpond": 7717,
      "Ġfork": 7718,
      "ĠHa": 7719,
      "ĠLes": 7720,
      "oses": 7721,
      "ĠNancy": 7722,
      "Ġroar": 7723,
      "Ġkeen": 7724,
      "Ġfunction": 7725,
      "Ġsounded": 7726,
      "Ġdraws": 7727,
      "Ġstudies": 7728,
      "Ġprompt": 7729,
      "Ġcoloring": 7730,
      "Ġbreathing": 7731,
      "Ġbanks": 7732,
      "Ġadventures": 7733,
      "ĠWilson": 7734,
      "Aren": 7735,
      "FOR": 7736,
      "Jesus": 7737,
      "Last": 7738,
      "More": 7739,
      "Over": 7740,
      "hor": 7741,
      "Ġsam": 7742,
      "rets": 7743,
      "onies": 7744,
      "enes": 7745,
      "omi": 7746,
      "Ġhills": 7747,
      "Ġbeans": 7748,
      "ams": 7749,
      "ĠMosely": 7750,
      "Ġcomed": 7751,
      "Ġguests": 7752,
      "icture": 7753,
      "Ġcrab": 7754,
      "Ġmustn": 7755,
      "TED": 7756,
      "rows": 7757,
      "Ġsets": 7758,
      "Ġpresents": 7759,
      "Ġreality": 7760,
      "ologist": 7761,
      "ervation": 7762,
      "Ġarrival": 7763,
      "Ġeventually": 7764,
      "ĠWHAT": 7765,
      "becca": 7766,
      "ĠWednesday": 7767,
      "Turn": 7768,
      "]...\"": 7769,
      "hun": 7770,
      "Ġwoo": 7771,
      "Ġsigh": 7772,
      "orious": 7773,
      "Ġgrey": 7774,
      "alo": 7775,
      "Ġrent": 7776,
      "Ġhers": 7777,
      "ĠJen": 7778,
      "ardo": 7779,
      "Ġspots": 7780,
      "ĠOff": 7781,
      "Ġ'_": 7782,
      "Ġchase": 7783,
      "Ġdraft": 7784,
      "Ġdollar": 7785,
      "Ġcountryside": 7786,
      "Ġdistricts": 7787,
      "Ġgolden": 7788,
      "ĠAgain": 7789,
      "Ġnetwork": 7790,
      "Ġtemperature": 7791,
      "ĠKatie": 7792,
      "Ġdesperate": 7793,
      "Ġcongressional": 7794,
      "Four": 7795,
      "mod": 7796,
      "Ġwoke": 7797,
      "Ġgle": 7798,
      "uties": 7799,
      "Ġseized": 7800,
      "umph": 7801,
      "ĠJac": 7802,
      "ĠJenny": 7803,
      "ĠLI": 7804,
      "hant": 7805,
      "Ġunion": 7806,
      "pected": 7807,
      "ĠGrace": 7808,
      "Ġsubs": 7809,
      "Ġidiot": 7810,
      "Ġrefers": 7811,
      "Ġsteel": 7812,
      "Ġvisited": 7813,
      "ĠCHAR": 7814,
      "Once": 7815,
      "ĠPatrick": 7816,
      "Ġshouting": 7817,
      "ĠRichards": 7818,
      "Ġbullet": 7819,
      "Ġattended": 7820,
      "Ġembarrass": 7821,
      "ĠLabour": 7822,
      "Ġfreedom": 7823,
      "Ġresources": 7824,
      "ĠPennsylvania": 7825,
      "Shall": 7826,
      "rots": 7827,
      "Ġmoo": 7828,
      "onge": 7829,
      "Ġfo": 7830,
      "Ġgreet": 7831,
      "ĠMobile": 7832,
      "ĠSOME": 7833,
      "alls": 7834,
      "elling": 7835,
      "Ġplot": 7836,
      "igator": 7837,
      "ements": 7838,
      "Ġmanuf": 7839,
      "ective": 7840,
      "Ġsecure": 7841,
      "Ġacted": 7842,
      "Ġslipp": 7843,
      "Ġboyfriend": 7844,
      "Ġcommitted": 7845,
      "Ġdistant": 7846,
      "Ġload": 7847,
      "Ġattacks": 7848,
      "Ġkingdom": 7849,
      "Ġdetails": 7850,
      "Ġwhisper": 7851,
      "ongratulations": 7852,
      "Ġrestaurant": 7853,
      "ĠConfeder": 7854,
      "Ġpregnant": 7855,
      "Ġmanufact": 7856,
      "CI": 7857,
      "pot": 7858,
      "wen": 7859,
      "Ġwicked": 7860,
      "Ġmaid": 7861,
      "Ġpressed": 7862,
      "Ġheight": 7863,
      "ĠAL": 7864,
      "ĠAle": 7865,
      "Ġanger": 7866,
      "ĠPir": 7867,
      "abel": 7868,
      "ĠWOR": 7869,
      "ques": 7870,
      "ĠOhio": 7871,
      "Ġexped": 7872,
      "Ġbrace": 7873,
      "achus": 7874,
      "onscious": 7875,
      "ibly": 7876,
      "ĠDeath": 7877,
      "Ġpossession": 7878,
      "Ġpoorly": 7879,
      "ĠPhilipp": 7880,
      "ĠShow": 7881,
      "Ġarrive": 7882,
      "Ġviolence": 7883,
      "Ġtechnology": 7884,
      "Ġbroadcast": 7885,
      "Next": 7886,
      "ĠRepresentatives": 7887,
      "Ġinhabitants": 7888,
      "bi": 7889,
      "iser": 7890,
      "ĠSA": 7891,
      "Ġseated": 7892,
      "ĠCle": 7893,
      "Ġash": 7894,
      "Ġnoted": 7895,
      "ĠDON": 7896,
      "Ġdeer": 7897,
      "olk": 7898,
      "ĠLE": 7899,
      "ĠLincoln": 7900,
      "Ġconference": 7901,
      "orted": 7902,
      "Ġflung": 7903,
      "Ġfuneral": 7904,
      "boat": 7905,
      "IDS": 7906,
      "Ġteachers": 7907,
      "volution": 7908,
      "Ġhousing": 7909,
      "icycle": 7910,
      "ĠNavy": 7911,
      "ĠDepartment": 7912,
      "Ġpilot": 7913,
      "squeals": 7914,
      "Ġroyal": 7915,
      "uy": 7916,
      "ught": 7917,
      "Ġtha": 7918,
      "Ġwishes": 7919,
      "Ġgri": 7920,
      "adu": 7921,
      "Ġrode": 7922,
      "iller": 7923,
      "ieved": 7924,
      "ilst": 7925,
      "ĠRus": 7926,
      "estion": 7927,
      "ivered": 7928,
      "ods": 7929,
      "ĠKy": 7930,
      "ĠUP": 7931,
      "Ġgrat": 7932,
      "new": 7933,
      "Ġdrum": 7934,
      "Ġcharges": 7935,
      "Ġtriangle": 7936,
      "char": 7937,
      "Ġinstruct": 7938,
      "Ġgrape": 7939,
      "Ġmiserable": 7940,
      "AME": 7941,
      "Ġwhale": 7942,
      "ĠMichigan": 7943,
      "Absolutely": 7944,
      "Har": 7945,
      "ito": 7946,
      "Ġmister": 7947,
      "Ġpit": 7948,
      "also": 7949,
      "Ġrejo": 7950,
      "ĠPra": 7951,
      "Ġshy": 7952,
      "agle": 7953,
      "Ġintake": 7954,
      "Ġdisplay": 7955,
      "Ġremaining": 7956,
      "Ġfinancial": 7957,
      "Ġbushes": 7958,
      "Ġconfir": 7959,
      "Ġlesson": 7960,
      "Ġpotty": 7961,
      "Ġconduct": 7962,
      "Ġbuddy": 7963,
      "Ġprinci": 7964,
      "glas": 7965,
      "Ġbubbles": 7966,
      "Ġroute": 7967,
      "Ġtissue": 7968,
      "cest": 7969,
      "song": 7970,
      "Ġeth": 7971,
      "rem": 7972,
      "Ġba": 7973,
      "Ġbore": 7974,
      "Ġbul": 7975,
      "Ġseasons": 7976,
      "ĠPot": 7977,
      "Ġnep": 7978,
      "ĠLisa": 7979,
      "Ġexceed": 7980,
      "ague": 7981,
      "Ġbackwards": 7982,
      "Ġamuse": 7983,
      "Ġguid": 7984,
      "hoe": 7985,
      "Ġretire": 7986,
      "Inter": 7987,
      "ĠOnly": 7988,
      "Ġtrave": 7989,
      "whispered": 7990,
      "Ġauthorities": 7991,
      "Ġloudly": 7992,
      "Ġinterrupted": 7993,
      "ĠChildsname": 7994,
      "Ġvehicle": 7995,
      "LIN": 7996,
      "draw": 7997,
      "fs": 7998,
      "gro": 7999,
      "ii": 8000,
      "arian": 8001,
      "Ġitem": 8002,
      "Ġracing": 8003,
      "ĠMen": 8004,
      "ĠSally": 8005,
      "ĠAS": 8006,
      "ĠOak": 8007,
      "Ġ(ï¿": 8008,
      "Ġintellig": 8009,
      "ptions": 8010,
      "Ġbaba": 8011,
      "Ġimpl": 8012,
      "Ġmighty": 8013,
      "Ġenthus": 8014,
      "Ġminds": 8015,
      "Ġcurtain": 8016,
      "ĠHarvey": 8017,
      "Ġtremb": 8018,
      "Ġdressing": 8019,
      "Ġlaun": 8020,
      "nesota": 8021,
      "Ġaffairs": 8022,
      "ĠBurton": 8023,
      "Ġnearest": 8024,
      "Ġdebate": 8025,
      "Cap": 8026,
      "David": 8027,
      "El": 8028,
      "Welcome": 8029,
      "dale": 8030,
      "ndy": 8031,
      "Ġcries": 8032,
      "Ġgon": 8033,
      "Ġbeep": 8034,
      "acity": 8035,
      "Ġrev": 8036,
      "ĠTan": 8037,
      "Ġkil": 8038,
      "ĠOs": 8039,
      "Ġconcl": 8040,
      "ĠStill": 8041,
      "rub": 8042,
      "Ġmonkeys": 8043,
      "lessly": 8044,
      "ĠDev": 8045,
      "Still": 8046,
      "ĠProd": 8047,
      "Ġapproached": 8048,
      "Ġpotato": 8049,
      "comm": 8050,
      "Ġclimate": 8051,
      "Ġconsiderable": 8052,
      "Ġlimit": 8053,
      "Ġsnakes": 8054,
      "ĠBroad": 8055,
      "Ġbenefit": 8056,
      "Ġsqueeze": 8057,
      "ĠJersey": 8058,
      "Ġnephew": 8059,
      "Up": 8060,
      "acious": 8061,
      "Ġforb": 8062,
      "irts": 8063,
      "umin": 8064,
      "ĠNever": 8065,
      "Ġjustice": 8066,
      "Ġconvin": 8067,
      "venge": 8068,
      "ĠKir": 8069,
      "Ġchin": 8070,
      "Ġscored": 8071,
      "Ġsupply": 8072,
      "Ġattached": 8073,
      "Ġconsist": 8074,
      "Ġroads": 8075,
      "Ġringing": 8076,
      "Ġthreatened": 8077,
      "Ġblew": 8078,
      "Ġappropriate": 8079,
      "Alex": 8080,
      "Want": 8081,
      "Ġ\"_": 8082,
      "Ġward": 8083,
      "inging": 8084,
      "Ġgain": 8085,
      "ĠTok": 8086,
      "Ġstack": 8087,
      "ĠSur": 8088,
      "Ġgoat": 8089,
      "rial": 8090,
      "ĠGi": 8091,
      "pless": 8092,
      "Ġunif": 8093,
      "Ġcarpet": 8094,
      "izz": 8095,
      "Ġglanced": 8096,
      "Ġbegun": 8097,
      "ĠCarter": 8098,
      "ĠMinnesota": 8099,
      "Ġsolid": 8100,
      "vocalization": 8101,
      "ĠStephen": 8102,
      "sembly": 8103,
      "DEB": 8104,
      "til": 8105,
      "Ġcups": 8106,
      "anwhile": 8107,
      "asm": 8108,
      "etts": 8109,
      "ader": 8110,
      "ĠTall": 8111,
      "ĠTuesday": 8112,
      "Ġrude": 8113,
      "ĠMall": 8114,
      "ilight": 8115,
      "ĠNok": 8116,
      "Ġintense": 8117,
      "Ġerr": 8118,
      "ĠKang": 8119,
      "Ġblows": 8120,
      "Ġdisag": 8121,
      "Ġappeal": 8122,
      "Ġcuts": 8123,
      "Ġexchan": 8124,
      "ĠSociety": 8125,
      "Ġconfess": 8126,
      "Ġofficially": 8127,
      "Ġcompeted": 8128,
      "Ġtorn": 8129,
      "Ġconnected": 8130,
      "ĠCaroline": 8131,
      "ĠStanley": 8132,
      "Ġshelter": 8133,
      "ĠBiography": 8134,
      "Ġhelicopter": 8135,
      "wick": 8136,
      "Ġ\"?\"": 8137,
      "Ġcott": 8138,
      "Ġlou": 8139,
      "Ġlif": 8140,
      "inkle": 8141,
      "ĠRoss": 8142,
      "akin": 8143,
      "Ġspaghetti": 8144,
      "Ġteaching": 8145,
      "Ġhappiness": 8146,
      "Ġumbre": 8147,
      "ĠYe": 8148,
      "Ġconfl": 8149,
      "Ġemot": 8150,
      "ĠBarb": 8151,
      "Ġstarred": 8152,
      "Ġcondu": 8153,
      "Ġmunicipal": 8154,
      "Ġnecessarily": 8155,
      "Ġgenus": 8156,
      "Ġdelightful": 8157,
      "Ġinjured": 8158,
      "Check": 8159,
      "Ġmurdered": 8160,
      "Eh": 8161,
      "IAN": 8162,
      "hum": 8163,
      "takes": 8164,
      "wan": 8165,
      "wide": 8166,
      "Ġtale": 8167,
      "Ġbid": 8168,
      "Ġgrap": 8169,
      "ĠIre": 8170,
      "asters": 8171,
      "Ġrag": 8172,
      "Ġstamp": 8173,
      "ĠSher": 8174,
      "urd": 8175,
      "ilton": 8176,
      "Ġmyth": 8177,
      "ĠJoy": 8178,
      "ĠKn": 8179,
      "text": 8180,
      "Ġguitar": 8181,
      "clears": 8182,
      "ĠIsa": 8183,
      "Ġimportance": 8184,
      "Ã¡n": 8185,
      "Shit": 8186,
      "Ġearned": 8187,
      "Ġsupported": 8188,
      "Ġscare": 8189,
      "ĠSecond": 8190,
      "Ġridiculous": 8191,
      "Probably": 8192,
      "Ġenvironmental": 8193,
      "ĠSusan": 8194,
      "ĠDouglas": 8195,
      "ĠSometimes": 8196,
      "ĠNokia": 8197,
      "when": 8198,
      "Ġsout": 8199,
      "refer": 8200,
      "Ġdull": 8201,
      "Ġtox": 8202,
      "anas": 8203,
      "Ġdoctors": 8204,
      "Ġreward": 8205,
      "ĠTeddy": 8206,
      "Ġugh": 8207,
      "ĠCy": 8208,
      "ĠHond": 8209,
      "Ġmystery": 8210,
      "ĠJethro": 8211,
      "ĠField": 8212,
      "inder": 8213,
      "Ġprospect": 8214,
      "Ġtroubles": 8215,
      "ART": 8216,
      "Ġswept": 8217,
      "Ġpassage": 8218,
      "ooray": 8219,
      "ĠXV": 8220,
      "Ġclimbed": 8221,
      "Ġlevels": 8222,
      "Ġprincip": 8223,
      "hetic": 8224,
      "Ġcheeky": 8225,
      "Ġmultip": 8226,
      "Time": 8227,
      "num": 8228,
      "uj": 8229,
      "inity": 8230,
      "Ġwars": 8231,
      "Ġdough": 8232,
      "Ġtools": 8233,
      "ĠAy": 8234,
      "ĠDie": 8235,
      "arts": 8236,
      "Ġclip": 8237,
      "Ġpecul": 8238,
      "ĠAlan": 8239,
      "ĠGran": 8240,
      "Ġmmm": 8241,
      "ussy": 8242,
      "shine": 8243,
      "Ġimpression": 8244,
      "Ġbearing": 8245,
      "cription": 8246,
      "Ġexpecting": 8247,
      "Ġbags": 8248,
      "Ġkissing": 8249,
      "Exactly": 8250,
      "Ġcosts": 8251,
      "Ġviolent": 8252,
      "ĠScholarship": 8253,
      "ĠPrefecture": 8254,
      "Ġcrocodile": 8255,
      "ĠIreland": 8256,
      "Out": 8257,
      "Sam": 8258,
      "aunt": 8259,
      "dess": 8260,
      "eys": 8261,
      "rr": 8262,
      "Ġtack": 8263,
      "Ġwreck": 8264,
      "Ġcuddle": 8265,
      "Ġded": 8266,
      "Ġhay": 8267,
      "chi": 8268,
      "Ġnoble": 8269,
      "andy": 8270,
      "Ġprem": 8271,
      "ĠVill": 8272,
      "Ġremove": 8273,
      "Ġbuying": 8274,
      "Ġchart": 8275,
      "rett": 8276,
      "Ġhundreds": 8277,
      "Ġshops": 8278,
      "Ġactivities": 8279,
      "pretend": 8280,
      "Ġchampionship": 8281,
      "Ġmysterious": 8282,
      "achusetts": 8283,
      "'.": 8284,
      "sk": 8285,
      "Ġtempt": 8286,
      "Ġfetch": 8287,
      "ĠLang": 8288,
      "ĠLiber": 8289,
      "ĠNO": 8290,
      "Ġpros": 8291,
      "Ġleather": 8292,
      "Ġproof": 8293,
      "Ġcompared": 8294,
      "Ġswear": 8295,
      "Ġcolored": 8296,
      "ertainly": 8297,
      "ĠIslands": 8298,
      "Ġseventeen": 8299,
      "Ġsolemn": 8300,
      "dra": 8301,
      "sl": 8302,
      "will": 8303,
      "works": 8304,
      "Ġcord": 8305,
      "ĠTem": 8306,
      "ĠBY": 8307,
      "ĠPL": 8308,
      "ĠWas": 8309,
      "ĠLA": 8310,
      "ĠRose": 8311,
      "Ġwanting": 8312,
      "Ġfever": 8313,
      "Ġunhappy": 8314,
      "weet": 8315,
      "Ġundert": 8316,
      "Ġsites": 8317,
      "inson": 8318,
      "umpy": 8319,
      "ĠNews": 8320,
      "Ġpenny": 8321,
      "Ġcapture": 8322,
      "ĠWinnie": 8323,
      "Ġscreaming": 8324,
      "ribly": 8325,
      "Ġphilos": 8326,
      "nge": 8327,
      "name": 8328,
      "Ġaer": 8329,
      "Ġsons": 8330,
      "had": 8331,
      "Ġbac": 8332,
      "nda": 8333,
      "Ġcage": 8334,
      "Ġdies": 8335,
      "Ġfake": 8336,
      "?\"\"": 8337,
      "Ġhits": 8338,
      "ĠBear": 8339,
      "ifts": 8340,
      "ourse": 8341,
      "ĠFour": 8342,
      "oli": 8343,
      "Ġgettin": 8344,
      "ĠLew": 8345,
      "ĠOb": 8346,
      "Ġfeather": 8347,
      "Were": 8348,
      "Ġunex": 8349,
      "Ġprec": 8350,
      "Ġwrites": 8351,
      "Ġchildhood": 8352,
      "Ġstopping": 8353,
      "ĠPrin": 8354,
      "ĠTele": 8355,
      "Ġbelonged": 8356,
      "Ġlocation": 8357,
      "Ġextended": 8358,
      "ĠFilm": 8359,
      "Ġargument": 8360,
      "Dear": 8361,
      "Ser": 8362,
      "wers": 8363,
      "Ġwing": 8364,
      "Ġpitched": 8365,
      "vering": 8366,
      "ĠMerc": 8367,
      "ĠSob": 8368,
      "ĠCas": 8369,
      "ĠHol": 8370,
      "ifted": 8371,
      "ctions": 8372,
      "Ġshining": 8373,
      "Ġalp": 8374,
      "hang": 8375,
      "Ġprince": 8376,
      "ĠBrid": 8377,
      "brush": 8378,
      "Ġreturning": 8379,
      "harp": 8380,
      "Ġapproaching": 8381,
      "Ġcloses": 8382,
      "ĠDanny": 8383,
      "Ġtempor": 8384,
      "Ġportion": 8385,
      "Ġdiscussion": 8386,
      "ALLY": 8387,
      "Ġassistant": 8388,
      "Ġcitizens": 8389,
      "Back": 8390,
      "gment": 8391,
      "iat": 8392,
      "uals": 8393,
      "Ġyup": 8394,
      "Ġlic": 8395,
      "Ġhoo": 8396,
      "imately": 8397,
      "ĠAri": 8398,
      "ĠEst": 8399,
      "Ġuseless": 8400,
      "Ġshapes": 8401,
      "Ġunits": 8402,
      "ĠStand": 8403,
      "Ġpole": 8404,
      "Ġchim": 8405,
      "Ġdisg": 8406,
      "ipur": 8407,
      "Ġcomplex": 8408,
      "Ġcommander": 8409,
      "hole": 8410,
      "Ġtouching": 8411,
      "Ġcreatures": 8412,
      "ĠDora": 8413,
      "Ġlemon": 8414,
      "Ġprimary": 8415,
      "ĠCastle": 8416,
      "ĠReliance": 8417,
      "Ġsignificant": 8418,
      "Ġincredible": 8419,
      "Tony": 8420,
      "uable": 8421,
      "real": 8422,
      "Ġcateg": 8423,
      "Ġmac": 8424,
      "anal": 8425,
      "Ġpud": 8426,
      "amas": 8427,
      "ĠPope": 8428,
      "ĠDog": 8429,
      "ĠFle": 8430,
      "ĠRich": 8431,
      "Ġfee": 8432,
      "Ġcomposed": 8433,
      "Ġreturns": 8434,
      "ĠChristopher": 8435,
      "Ġplanet": 8436,
      "Ġservant": 8437,
      "fortable": 8438,
      "Ġdawn": 8439,
      "ĠEliot": 8440,
      "ĠPhilip": 8441,
      "Ġvisitors": 8442,
      "Ġprisoners": 8443,
      "Ġbasketball": 8444,
      "ĠChampionships": 8445,
      "sniffs": 8446,
      "Ġmerged": 8447,
      "Ġcereal": 8448,
      "Ġadopted": 8449,
      "ĠFrancisco": 8450,
      "ĠLieutenant": 8451,
      "ĠTigger": 8452,
      "keeper": 8453,
      "Luc": 8454,
      "breat": 8455,
      "nis": 8456,
      "nut": 8457,
      "sar": 8458,
      "Ġawards": 8459,
      "Ġarose": 8460,
      "Ġsought": 8461,
      "Ġfestival": 8462,
      "Ġrivers": 8463,
      "Ġstations": 8464,
      "Ġgoals": 8465,
      "unte": 8466,
      "ĠWales": 8467,
      "earch": 8468,
      "Ġblast": 8469,
      "teacher": 8470,
      "pton": 8471,
      "Ġhelpless": 8472,
      "Ġresident": 8473,
      "âĻ«": 8474,
      "Ġdrank": 8475,
      "Ġpainted": 8476,
      "ĠLeon": 8477,
      "Ġtreatment": 8478,
      "Ġsplash": 8479,
      "Ġsatisfaction": 8480,
      "stitution": 8481,
      "Ġdegrees": 8482,
      "Ġmuttered": 8483,
      "ĠMassachusetts": 8484,
      "Ġumbrella": 8485,
      "AF": 8486,
      "Ma": 8487,
      "Rat": 8488,
      "belt": 8489,
      "foot": 8490,
      "gabr": 8491,
      "toy": 8492,
      "Ġaft": 8493,
      "Ġwolf": 8494,
      "rek": 8495,
      "Ġbishop": 8496,
      "Ġyah": 8497,
      "utt": 8498,
      "imum": 8499,
      "Ġrefe": 8500,
      "Ġstout": 8501,
      "Ġancest": 8502,
      "ĠCook": 8503,
      "ĠPerson": 8504,
      "ighed": 8505,
      "IND": 8506,
      "ĠNHL": 8507,
      "Ġspill": 8508,
      "Ġchuck": 8509,
      "ANK": 8510,
      "Ġscr": 8511,
      "Ġhorror": 8512,
      "Ġsticking": 8513,
      "Ġconfused": 8514,
      "Ġprovin": 8515,
      "Ġillust": 8516,
      "Ġexperiment": 8517,
      "Ġpolicies": 8518,
      "Ġislands": 8519,
      "Ġgrowth": 8520,
      "Ġsnap": 8521,
      "ĠWinter": 8522,
      "hemat": 8523,
      "Ġarchite": 8524,
      "Ġphrase": 8525,
      "referring": 8526,
      "PE": 8527,
      "dr": 8528,
      "door": 8529,
      "hu": 8530,
      "mony": 8531,
      "nam": 8532,
      "sharp": 8533,
      "top": 8534,
      "Ġmental": 8535,
      "Ġgal": 8536,
      "asion": 8537,
      "Ġreview": 8538,
      "Ġreference": 8539,
      "Ġstiff": 8540,
      "ĠBall": 8541,
      "ophy": 8542,
      "riger": 8543,
      "uled": 8544,
      "ĠLast": 8545,
      "ĠHend": 8546,
      "udden": 8547,
      "agement": 8548,
      "Ġchamber": 8549,
      "theless": 8550,
      "Ġattitude": 8551,
      "Ġcharged": 8552,
      "Ġfactory": 8553,
      "Ġcrap": 8554,
      "Ġconstant": 8555,
      "Ġbasic": 8556,
      "Ġsenior": 8557,
      "Honey": 8558,
      "bor": 8559,
      "jamin": 8560,
      "san": 8561,
      "onation": 8562,
      "ington": 8563,
      "aman": 8564,
      "ĠFer": 8565,
      "ĠRh": 8566,
      "ĠOt": 8567,
      "Ġvig": 8568,
      "Ġbrick": 8569,
      "ysis": 8570,
      "Ġguards": 8571,
      "Ġheaded": 8572,
      "Ġinstit": 8573,
      "Ġdining": 8574,
      "Ġsteam": 8575,
      "Ġtomato": 8576,
      "ĠAustria": 8577,
      "igging": 8578,
      "Ġadmitted": 8579,
      "Ġkicking": 8580,
      "Christ": 8581,
      "Ġphotograph": 8582,
      "Ġaudience": 8583,
      "ĠKorean": 8584,
      "Ġproceeded": 8585,
      "Ġaffected": 8586,
      "ĠJewish": 8587,
      "Bill": 8588,
      "DAN": 8589,
      "GR": 8590,
      "KT": 8591,
      "UP": 8592,
      "gal": 8593,
      "Ġaah": 8594,
      "itable": 8595,
      "Ġpist": 8596,
      "Ġnick": 8597,
      "Ġnonsense": 8598,
      "ĠTa": 8599,
      "ĠSoo": 8600,
      "ĠCreeks": 8601,
      "Ġjelly": 8602,
      "apers": 8603,
      "Ġscript": 8604,
      "Ġactions": 8605,
      "Ġpolite": 8606,
      "Ġthankful": 8607,
      "Ġanimated": 8608,
      "Ġfacts": 8609,
      "Ġsticky": 8610,
      "Ġdiscover": 8611,
      "Ġfriendship": 8612,
      "Ġconfident": 8613,
      "uki": 8614,
      "Ġcommonly": 8615,
      "Ġhealthy": 8616,
      "Ġvotes": 8617,
      "ĠUkraine": 8618,
      "Ġconcluded": 8619,
      "ennessee": 8620,
      "dad": 8621,
      "four": 8622,
      "pill": 8623,
      "Ġoy": 8624,
      "erk": 8625,
      "Ġcater": 8626,
      "Ġdirt": 8627,
      "Ġnit": 8628,
      "otted": 8629,
      "Ġere": 8630,
      "imp": 8631,
      "ĠTennessee": 8632,
      "Ġstares": 8633,
      "ĠMir": 8634,
      "ifying": 8635,
      "Ġdonkey": 8636,
      "ĠPip": 8637,
      "ĠRom": 8638,
      "Ġintention": 8639,
      "Ġlegend": 8640,
      "ints": 8641,
      "Ġcompound": 8642,
      "mann": 8643,
      "Ġobtained": 8644,
      "OUR": 8645,
      "Ġkidna": 8646,
      "Ġimpress": 8647,
      "Ġshortly": 8648,
      "Ġleads": 8649,
      "Ġdefence": 8650,
      "oubled": 8651,
      "ĠHoward": 8652,
      "ICE": 8653,
      "Ġpacked": 8654,
      "Ġdescribe": 8655,
      "Ġholidays": 8656,
      "Ġpossibility": 8657,
      "Ġintroduce": 8658,
      "Ġutterance": 8659,
      "Ġfurniture": 8660,
      "ĠAtlantic": 8661,
      "Ġbastard": 8662,
      "ngeun": 8663,
      "Poor": 8664,
      "cow": 8665,
      "inem": 8666,
      "Ġdug": 8667,
      "Ġdumb": 8668,
      "aro": 8669,
      "ĠAF": 8670,
      "eav": 8671,
      "ĠChat": 8672,
      "ĠCivil": 8673,
      "ĠGall": 8674,
      "ĠNa": 8675,
      "ntil": 8676,
      "Ġexact": 8677,
      "high": 8678,
      "hings": 8679,
      "Ġclay": 8680,
      "Ġbuzz": 8681,
      "arson": 8682,
      "Ġelement": 8683,
      "Ġassured": 8684,
      "rogen": 8685,
      "Ġlover": 8686,
      "Ġcowboy": 8687,
      "Ġmistaken": 8688,
      "Ġpackage": 8689,
      "Ġnapkin": 8690,
      "Ġhistorical": 8691,
      "Ġdemanded": 8692,
      "Ġmerely": 8693,
      "Ġliquid": 8694,
      "Ġcigaret": 8695,
      "Ġunexpected": 8696,
      "Bring": 8697,
      "CT": 8698,
      "oise": 8699,
      "Ġtropical": 8700,
      "Ġmast": 8701,
      "orpor": 8702,
      "Ġhal": 8703,
      "Ġstable": 8704,
      "eling": 8705,
      "ĠEastern": 8706,
      "Ġven": 8707,
      "ĠUs": 8708,
      "Ġkindness": 8709,
      "Ġnearby": 8710,
      "Ġloads": 8711,
      "Ġreaching": 8712,
      "Ġzero": 8713,
      "Ġorganized": 8714,
      "ĠPoland": 8715,
      "Ġkicked": 8716,
      "Ġcomplain": 8717,
      "Ġseparated": 8718,
      "Ġphoto": 8719,
      "Ġuncomfortable": 8720,
      "Ġpenguin": 8721,
      "Ġconfirmed": 8722,
      "Ben": 8723,
      "Big": 8724,
      "Hang": 8725,
      "Sha": 8726,
      "cr": 8727,
      "col": 8728,
      "mouth": 8729,
      "sur": 8730,
      "asped": 8731,
      "Ġrider": 8732,
      "Ġstor": 8733,
      "ĠWacker": 8734,
      "Ġnowhere": 8735,
      "ĠKas": 8736,
      "Ġteen": 8737,
      "Ġpoem": 8738,
      "Ġdistur": 8739,
      "Ġwinds": 8740,
      "Ġaddressed": 8741,
      "Ġconfusion": 8742,
      "Ã©e": 8743,
      "Ġmidnight": 8744,
      "Ġclasses": 8745,
      "Ġkisses": 8746,
      "ĠPolish": 8747,
      "Ġcheerful": 8748,
      "Ġrailway": 8749,
      "Ġ#\"": 8750,
      "Ġresolution": 8751,
      "ĠCOVID": 8752,
      "Ġathlet": 8753,
      "Ġgrapes": 8754,
      "PS": 8755,
      "bin": 8756,
      "Ġsadd": 8757,
      "onom": 8758,
      "Ġthumb": 8759,
      "Ġreign": 8760,
      "Ġstated": 8761,
      "iev": 8762,
      "andra": 8763,
      "ĠPoint": 8764,
      "umption": 8765,
      "inking": 8766,
      "Ġplates": 8767,
      "ĠGarth": 8768,
      "ATE": 8769,
      "ĠRon": 8770,
      "rah": 8771,
      "ĠNich": 8772,
      "Ġ(,": 8773,
      "ROM": 8774,
      "gger": 8775,
      "Ġlasted": 8776,
      "Ġsurgery": 8777,
      "oked": 8778,
      "Ġsumm": 8779,
      "ĠMcC": 8780,
      "Ġabsence": 8781,
      "Ġclosing": 8782,
      "Ġmagnetic": 8783,
      "Ġeconomy": 8784,
      "NNN": 8785,
      "Ġinstrument": 8786,
      "Ġwarriors": 8787,
      "ĠService": 8788,
      "gbark": 8789,
      "Five": 8790,
      "bish": 8791,
      "eh": 8792,
      "uzz": 8793,
      "Ġmerry": 8794,
      "Ġdaught": 8795,
      "ori": 8796,
      "Ġhooray": 8797,
      "ĠTime": 8798,
      "ami": 8799,
      "ĠMem": 8800,
      "ĠSik": 8801,
      "Ġwhilst": 8802,
      "Ġfrag": 8803,
      "Ġspider": 8804,
      "aved": 8805,
      "Ġpreviously": 8806,
      "into": 8807,
      "Ġwrit": 8808,
      "enses": 8809,
      "ĠAndrew": 8810,
      "Ġalongside": 8811,
      "Ġzeb": 8812,
      "Ġextraord": 8813,
      "Ġlaunched": 8814,
      "AV": 8815,
      "Ġ:": 8816,
      "heim": 8817,
      "erick": 8818,
      "arant": 8819,
      "ettle": 8820,
      "utions": 8821,
      "Ġseas": 8822,
      "ĠJam": 8823,
      "Ġroast": 8824,
      "Ġens": 8825,
      "places": 8826,
      "ava": 8827,
      "Ġunivers": 8828,
      "Ġstrict": 8829,
      "Ġhurting": 8830,
      "Ġdecent": 8831,
      "Ġsneak": 8832,
      "ĠMayor": 8833,
      "Ġhumans": 8834,
      "coming": 8835,
      "Ġsafely": 8836,
      "Ġfeeding": 8837,
      "Ġsexual": 8838,
      "ĠSeries": 8839,
      "Ġgradually": 8840,
      "Ġdepends": 8841,
      "Ġbattery": 8842,
      "Ġvegetables": 8843,
      "Ġcommercial": 8844,
      "Little": 8845,
      "SH": 8846,
      "two": 8847,
      "Ġsank": 8848,
      "escue": 8849,
      "Ġrage": 8850,
      "Ġstared": 8851,
      "ĠMR": 8852,
      "ĠAvenue": 8853,
      "Ġseal": 8854,
      "ĠBus": 8855,
      "Ġtray": 8856,
      "asses": 8857,
      "Ġchip": 8858,
      "ĠVas": 8859,
      "Ġdistingu": 8860,
      "Ġreduced": 8861,
      "ĠArch": 8862,
      "ĠArgent": 8863,
      "retty": 8864,
      "ĠThursday": 8865,
      "ĠRebecca": 8866,
      "Ġmidst": 8867,
      "Ġburden": 8868,
      "Ġconcer": 8869,
      "Ġstatus": 8870,
      "Ġexception": 8871,
      "Ġpunishment": 8872,
      "ĠMerrim": 8873,
      "Ġceremony": 8874,
      "Ġinvestigation": 8875,
      "habet": 8876,
      "ĠVictoria": 8877,
      "Ġwrapped": 8878,
      "rinini": 8879,
      "ACK": 8880,
      "crying": 8881,
      "des": 8882,
      "mes": 8883,
      "tes": 8884,
      "western": 8885,
      "Ġbars": 8886,
      "itors": 8887,
      "Ġpace": 8888,
      "ĠIV": 8889,
      "arrondissement": 8890,
      "Ġbeard": 8891,
      "Ġwebs": 8892,
      "acco": 8893,
      "ĠMi": 8894,
      "ĠMod": 8895,
      "ĠSong": 8896,
      "ĠBank": 8897,
      "ĠBesides": 8898,
      "ĠJosh": 8899,
      "ĠJUST": 8900,
      "ĠWater": 8901,
      "osy": 8902,
      "ĠEN": 8903,
      "Ġenqu": 8904,
      "Ġprey": 8905,
      "Ġasks": 8906,
      "ĠYet": 8907,
      "ultural": 8908,
      "Ġcounting": 8909,
      "Ġmarch": 8910,
      "Ġcapable": 8911,
      "Ġtrained": 8912,
      "ĠBenjamin": 8913,
      "Ġevol": 8914,
      "hammad": 8915,
      "Ġsunshine": 8916,
      "Ġannounce": 8917,
      "THING": 8918,
      "whisper": 8919,
      "ĠShagbark": 8920,
      "Ġneighbour": 8921,
      "Ġnaturally": 8922,
      "ECT": 8923,
      "Ġaccompan": 8924,
      "Ġfoolish": 8925,
      "Ġeconomic": 8926,
      "Ġcrawl": 8927,
      "Ġresponded": 8928,
      "ĠCareer": 8929,
      "Je": 8930,
      "PH": 8931,
      "Six": 8932,
      "Ġtu": 8933,
      "Ġ\"-": 8934,
      "Ġwret": 8935,
      "itter": 8936,
      "Ġgest": 8937,
      "eness": 8938,
      "Ġbend": 8939,
      "utter": 8940,
      "utation": 8941,
      "entine": 8942,
      "ĠMoon": 8943,
      "ĠSon": 8944,
      "ĠHung": 8945,
      "ĠPubl": 8946,
      "ĠDave": 8947,
      "geon": 8948,
      "ĠGre": 8949,
      "ĠLit": 8950,
      "Ġvoy": 8951,
      "Ġvirt": 8952,
      "cipl": 8953,
      "Ġendeav": 8954,
      "ĠAndre": 8955,
      "Ġobst": 8956,
      "Ġlisted": 8957,
      "Ġopera": 8958,
      "Ġgods": 8959,
      "Ġtesting": 8960,
      "ĠPolice": 8961,
      "Ġlabel": 8962,
      "Ġvolunte": 8963,
      "ĠLucas": 8964,
      "Ġmercy": 8965,
      "Ġsurrounded": 8966,
      "ĠLewis": 8967,
      "CLA": 8968,
      "Sec": 8969,
      "cur": 8970,
      "Ġtables": 8971,
      "Ġped": 8972,
      "Ġpiss": 8973,
      "Ġhired": 8974,
      "Ġthief": 8975,
      "adies": 8976,
      "amation": 8977,
      "ĠBir": 8978,
      "about": 8979,
      "ĠName": 8980,
      "Ġbob": 8981,
      "itei": 8982,
      "ĠKo": 8983,
      "ĠKong": 8984,
      "Ġsmoking": 8985,
      "manRat": 8986,
      "âĢķ": 8987,
      "ĠGram": 8988,
      "Ġreflect": 8989,
      "Ġexpressed": 8990,
      "Ġclothing": 8991,
      "Ġopposed": 8992,
      "Ġtickets": 8993,
      "Ġorganis": 8994,
      "ĠEmily": 8995,
      "Ġlabor": 8996,
      "Ġgarbage": 8997,
      "Ġprepare": 8998,
      "ĠBattle": 8999,
      "Ġepisodes": 9000,
      "Ġoccasionally": 9001,
      "Ġexistence": 9002,
      "NewmanRat": 9003,
      "Ġcycl": 9004,
      "Ġtraditional": 9005,
      "quarters": 9006,
      "Interviews": 9007,
      "Ġpeculiar": 9008,
      "ĠHenderson": 9009,
      "NewmanRatner": 9010,
      "App": 9011,
      "Int": 9012,
      "cing": 9013,
      "dog": 9014,
      "mate": 9015,
      "why": 9016,
      "Ã¦": 9017,
      "Ġax": 9018,
      "Ġwww": 9019,
      "Ġoven": 9020,
      "Ġpad": 9021,
      "kel": 9022,
      "ĠHea": 9023,
      "ĠFederal": 9024,
      "ĠLook": 9025,
      "agger": 9026,
      "Ġages": 9027,
      "Ġquant": 9028,
      "ova": 9029,
      "Ġunlike": 9030,
      "ĠAlger": 9031,
      "encies": 9032,
      "Ġeditor": 9033,
      "Ġarticle": 9034,
      "Ġbanging": 9035,
      "Ġdevice": 9036,
      "Ġbillion": 9037,
      "ĠTokyo": 9038,
      "Ġdaughters": 9039,
      "SO": 9040,
      "mosp": 9041,
      "pany": 9042,
      "vior": 9043,
      "orial": 9044,
      "Ġbeating": 9045,
      "iments": 9046,
      "ĠSever": 9047,
      "ĠAut": 9048,
      "ĠDever": 9049,
      "ĠDuke": 9050,
      "ĠWhe": 9051,
      "eline": 9052,
      "Ġcomin": 9053,
      "Ġtrace": 9054,
      "ĠKay": 9055,
      "ĠKate": 9056,
      "ĠUK": 9057,
      "Ġthrust": 9058,
      "ĠValley": 9059,
      "Ġtryin": 9060,
      "Ġdragged": 9061,
      "Ġnumerous": 9062,
      "umpty": 9063,
      "Ġdiscovery": 9064,
      "ĠJapazy": 9065,
      "Ġchecking": 9066,
      "Ġquarters": 9067,
      "ĠSergeant": 9068,
      "mitage": 9069,
      "Ġholy": 9070,
      "Ġproducts": 9071,
      "ocracy": 9072,
      "Ġdivorced": 9073,
      "Ġcotton": 9074,
      "Ġslavery": 9075,
      "DO": 9076,
      "TLE": 9077,
      "iper": 9078,
      "oir": 9079,
      "etime": 9080,
      "Ġecho": 9081,
      "ĠHoll": 9082,
      "Ġjolly": 9083,
      "ĠPur": 9084,
      "ĠWes": 9085,
      "ĠBrook": 9086,
      "ĠAlso": 9087,
      "Ġobtain": 9088,
      "Ġobvious": 9089,
      "Ġcatches": 9090,
      "Ġwarn": 9091,
      "Ġimpact": 9092,
      "ĠForce": 9093,
      "Ġinsisted": 9094,
      "Ġparrot": 9095,
      "ĠColin": 9096,
      "ĠMeanwhile": 9097,
      "Ġvariety": 9098,
      "Ġattempts": 9099,
      "dded": 9100,
      "Ġactivist": 9101,
      "Ġanxiety": 9102,
      "annine": 9103,
      "ĠCorpor": 9104,
      "Ġhippo": 9105,
      "Bre": 9106,
      "LING": 9107,
      "Other": 9108,
      "dri": 9109,
      "hn": 9110,
      "vant": 9111,
      "yy": 9112,
      "Ġsung": 9113,
      "era": 9114,
      "eram": 9115,
      "Ġcreek": 9116,
      "Ġginger": 9117,
      "Ġhom": 9118,
      "Ġbegged": 9119,
      "sect": 9120,
      "ĠMAR": 9121,
      "ĠCher": 9122,
      "ĠBea": 9123,
      "ĠBBC": 9124,
      "unks": 9125,
      "ainted": 9126,
      "ĠPa": 9127,
      "ĠPink": 9128,
      "Ġdece": 9129,
      "ĠForm": 9130,
      "Ġcomments": 9131,
      "Ġconcept": 9132,
      "ĠKath": 9133,
      "Ġprime": 9134,
      "Ġpartners": 9135,
      "Ġcarrots": 9136,
      "obby": 9137,
      "pended": 9138,
      "Ġcommit": 9139,
      "Ġballoons": 9140,
      "ĠArmitage": 9141,
      "ĠYoungeun": 9142,
      "bridge": 9143,
      "Ġassume": 9144,
      "Ġinterp": 9145,
      "Ġunderstanding": 9146,
      "Ġspeaker": 9147,
      "Ġinsurance": 9148,
      "Ġcrossing": 9149,
      "Ġdirections": 9150,
      "Ġruined": 9151,
      "Ġstores": 9152,
      "iji": 9153,
      "Ġbucket": 9154,
      "ĠFortescue": 9155,
      "Ġarrows": 9156,
      "Ġfantastic": 9157,
      "ĠABOUT": 9158,
      "Ġamendment": 9159,
      "Ġcottage": 9160,
      "GO": 9161,
      "Ok": 9162,
      "bud": 9163,
      "fit": 9164,
      "iven": 9165,
      "Ġbum": 9166,
      "Ġyer": 9167,
      "Ġfare": 9168,
      "Ġfeared": 9169,
      "ĠAny": 9170,
      "Ġhadta": 9171,
      "ĠEnd": 9172,
      "Ġanyhow": 9173,
      "Ġwherever": 9174,
      "Ġchum": 9175,
      "HEN": 9176,
      "Ġmothers": 9177,
      "Ġgloves": 9178,
      "ĠBridge": 9179,
      "ĠMaria": 9180,
      "grunts": 9181,
      "Ġsnack": 9182,
      "Ġtennis": 9183,
      "ĠHarrison": 9184,
      "ĠIslam": 9185,
      "Ġtremend": 9186,
      "Ġdefense": 9187,
      "hart": 9188,
      "Ġstaring": 9189,
      "Ġcatching": 9190,
      "ĠMeitei": 9191,
      "Ġestate": 9192,
      "Ġdeeply": 9193,
      "ĠJeannine": 9194,
      "Ġceased": 9195,
      "Ġdefeat": 9196,
      "Ġmemories": 9197,
      "Ġsandwiches": 9198,
      "Ġestablish": 9199,
      "Ġgrabs": 9200,
      "elphia": 9201,
      "Ġmigration": 9202,
      "Ġsymbol": 9203,
      "respond": 9204,
      "ĠGordon": 9205,
      "Ġexpedition": 9206,
      "Ġprincipal": 9207,
      "uddenly": 9208,
      "Pardon": 9209,
      "raspberry": 9210,
      "Ġwigg": 9211,
      "Ġcush": 9212,
      "Ġmuseum": 9213,
      "Ġlux": 9214,
      "Ġnations": 9215,
      "Ġheap": 9216,
      "lets": 9217,
      "ĠMuseum": 9218,
      "ĠSn": 9219,
      "ĠAz": 9220,
      "ĠHard": 9221,
      "Ġnodded": 9222,
      "Ġje": 9223,
      "una": 9224,
      "aba": 9225,
      "ĠGun": 9226,
      "ĠGreg": 9227,
      "ĠLy": 9228,
      "ĠEaster": 9229,
      "Ġtramp": 9230,
      "ogue": 9231,
      "ports": 9232,
      "Ġindign": 9233,
      "ĠAnnie": 9234,
      "Ġassault": 9235,
      "Ġawait": 9236,
      "Ġsquad": 9237,
      "Ġdrinks": 9238,
      "Ġvisible": 9239,
      "Ġstrongly": 9240,
      "Ġpretending": 9241,
      "ĠMeg": 9242,
      "ropol": 9243,
      "Ġowl": 9244,
      "Another": 9245,
      "Ġrepeat": 9246,
      "Ġwaist": 9247,
      "Ġfaithful": 9248,
      "Ġstretched": 9249,
      "Ġexecutive": 9250,
      "Ġcomrades": 9251,
      "Ġbracelet": 9252,
      "UE": 9253,
      "Ġtops": 9254,
      "Ġloyal": 9255,
      "Ġhamb": 9256,
      "adelphia": 9257,
      "Ġruff": 9258,
      "ĠJos": 9259,
      "ĠGina": 9260,
      "ardens": 9261,
      "Ġenorm": 9262,
      "Ġshared": 9263,
      "izations": 9264,
      "Ġlongest": 9265,
      "Ġcricket": 9266,
      "Ġrecall": 9267,
      "ounces": 9268,
      "ĠBrother": 9269,
      "Ġstays": 9270,
      "Ġstickers": 9271,
      "Ġprovision": 9272,
      "zech": 9273,
      "Ġfigured": 9274,
      "Ġartists": 9275,
      "ĠColumb": 9276,
      "Ġenjoying": 9277,
      "Ġsolution": 9278,
      "ĠFrederick": 9279,
      "ĠMuslim": 9280,
      "Ġreferring": 9281,
      "Ġtouches": 9282,
      "Ġstretch": 9283,
      "Ġapologize": 9284,
      "Ġexplanation": 9285,
      "Ġinstructions": 9286,
      "Ġconflict": 9287,
      "ĠDevering": 9288,
      "TV": 9289,
      "TON": 9290,
      "WELL": 9291,
      "cat": 9292,
      "cray": 9293,
      "Ġtune": 9294,
      "Ġfires": 9295,
      "Ġpussy": 9296,
      "Ġga": 9297,
      "eno": 9298,
      "Ġlaughter": 9299,
      "attered": 9300,
      "verse": 9301,
      "ĠAss": 9302,
      "ĠHun": 9303,
      "Ġfrank": 9304,
      "ĠPoor": 9305,
      "ĠFame": 9306,
      "ĠKi": 9307,
      "ĠKar": 9308,
      "ĠIntern": 9309,
      "Ġcleared": 9310,
      "Ġscale": 9311,
      "Ġprojects": 9312,
      "ĠONE": 9313,
      "Ġnegative": 9314,
      "oosa": 9315,
      "Ġawarded": 9316,
      "ĠRuthven": 9317,
      "Ġbiscuit": 9318,
      "Ġbiscuits": 9319,
      "Ġcriminal": 9320,
      "Ġconvinced": 9321,
      "ĠSobrinini": 9322,
      "Ġcaterpill": 9323,
      "Too": 9324,
      "giving": 9325,
      "master": 9326,
      "Ġbored": 9327,
      "Ġfasc": 9328,
      "Ġpeak": 9329,
      "Ġgorge": 9330,
      "Ġthunder": 9331,
      "ĠSk": 9332,
      "ĠSem": 9333,
      "ĠCwww": 9334,
      "ĠBorden": 9335,
      "Ġjingle": 9336,
      "ĠFel": 9337,
      "rily": 9338,
      "ĠWel": 9339,
      "ĠLane": 9340,
      "Ġtheme": 9341,
      "agon": 9342,
      "reeze": 9343,
      "ĠUpper": 9344,
      "Ġfeature": 9345,
      "Ġchallen": 9346,
      "MAD": 9347,
      "Ġserving": 9348,
      "ĠChap": 9349,
      "Ġanswers": 9350,
      "Ġdrawer": 9351,
[...]
